{
  "version": "1.0",
  "truncation": null,
  "padding": null,
  "added_tokens": [
    {
      "id": 0,
      "content": "[PAD]",
      "single_word": false,
      "lstrip": false,
      "rstrip": false,
      "normalized": false,
      "special": true
    },
    {
      "id": 1,
      "content": "[UNK]",
      "single_word": false,
      "lstrip": false,
      "rstrip": false,
      "normalized": false,
      "special": true
    },
    {
      "id": 2,
      "content": "[CLS]",
      "single_word": false,
      "lstrip": false,
      "rstrip": false,
      "normalized": false,
      "special": true
    },
    {
      "id": 3,
      "content": "[SEP]",
      "single_word": false,
      "lstrip": false,
      "rstrip": false,
      "normalized": false,
      "special": true
    },
    {
      "id": 4,
      "content": "[MASK]",
      "single_word": false,
      "lstrip": false,
      "rstrip": false,
      "normalized": false,
      "special": true
    }
  ],
  "normalizer": {
    "type": "BertNormalizer",
    "clean_text": true,
    "handle_chinese_chars": true,
    "strip_accents": null,
    "lowercase": true
  },
  "pre_tokenizer": {
    "type": "BertPreTokenizer"
  },
  "post_processor": {
    "type": "TemplateProcessing",
    "single": [
      {
        "SpecialToken": {
          "id": "[CLS]",
          "type_id": 0
        }
      },
      {
        "Sequence": {
          "id": "A",
          "type_id": 0
        }
      },
      {
        "SpecialToken": {
          "id": "[SEP]",
          "type_id": 0
        }
      }
    ],
    "pair": [
      {
        "SpecialToken": {
          "id": "[CLS]",
          "type_id": 0
        }
      },
      {
        "Sequence": {
          "id": "A",
          "type_id": 0
        }
      },
      {
        "SpecialToken": {
          "id": "[SEP]",
          "type_id": 0
        }
      },
      {
        "Sequence": {
          "id": "B",
          "type_id": 1
        }
      },
      {
        "SpecialToken": {
          "id": "[SEP]",
          "type_id": 1
        }
      }
    ],
    "special_tokens": {
      "[CLS]": {
        "id": "[CLS]",
        "ids": [
          2
        ],
        "tokens": [
          "[CLS]"
        ]
      },
      "[SEP]": {
        "id": "[SEP]",
        "ids": [
          3
        ],
        "tokens": [
          "[SEP]"
        ]
      }
    }
  },
  "decoder": {
    "type": "WordPiece",
    "prefix": "##",
    "cleanup": true
  },
  "model": {
    "type": "WordPiece",
    "unk_token": "[UNK]",
    "continuing_subword_prefix": "##",
    "max_input_chars_per_word": 100,
    "vocab": {
      "[PAD]": 0,
      "[UNK]": 1,
      "[CLS]": 2,
      "[SEP]": 3,
      "[MASK]": 4,
      "!": 5,
      "\"": 6,
      "#": 7,
      "$": 8,
      "%": 9,
      "&": 10,
      "'": 11,
      "(": 12,
      ")": 13,
      "*": 14,
      "+": 15,
      ",": 16,
      "-": 17,
      ".": 18,
      "/": 19,
      "0": 20,
      "1": 21,
      "2": 22,
      "3": 23,
      "4": 24,
      "5": 25,
      "6": 26,
      "7": 27,
      "8": 28,
      "9": 29,
      ":": 30,
      ";": 31,
      "<": 32,
      "=": 33,
      ">": 34,
      "?": 35,
      "@": 36,
      "[": 37,
      "\\": 38,
      "]": 39,
      "^": 40,
      "_": 41,
      "`": 42,
      "a": 43,
      "b": 44,
      "c": 45,
      "d": 46,
      "e": 47,
      "f": 48,
      "g": 49,
      "h": 50,
      "i": 51,
      "j": 52,
      "k": 53,
      "l": 54,
      "m": 55,
      "n": 56,
      "o": 57,
      "p": 58,
      "q": 59,
      "r": 60,
      "s": 61,
      "t": 62,
      "u": 63,
      "v": 64,
      "w": 65,
      "x": 66,
      "y": 67,
      "z": 68,
      "{": 69,
      "|": 70,
      "}": 71,
      "~": 72,
      "¡": 73,
      "¢": 74,
      "£": 75,
      "¤": 76,
      "¦": 77,
      "§": 78,
      "¨": 79,
      "«": 80,
      "®": 81,
      "°": 82,
      "³": 83,
      "´": 84,
      "·": 85,
      "º": 86,
      "»": 87,
      "½": 88,
      "¾": 89,
      "¿": 90,
      "ß": 91,
      "æ": 92,
      "ð": 93,
      "ø": 94,
      "–": 95,
      "‘": 96,
      "’": 97,
      "“": 98,
      "”": 99,
      "…": 100,
      "₤": 101,
      "##t": 102,
      "##i": 103,
      "##f": 104,
      "##n": 105,
      "##e": 106,
      "##s": 107,
      "##c": 108,
      "##a": 109,
      "##l": 110,
      "##r": 111,
      "##g": 112,
      "##o": 113,
      "##j": 114,
      "##y": 115,
      "##v": 116,
      "##d": 117,
      "##u": 118,
      "##m": 119,
      "##w": 120,
      "##h": 121,
      "##p": 122,
      "##k": 123,
      "##x": 124,
      "##z": 125,
      "##b": 126,
      "##5": 127,
      "##9": 128,
      "##8": 129,
      "##1": 130,
      "##2": 131,
      "##3": 132,
      "##0": 133,
      "##q": 134,
      "##´": 135,
      "##4": 136,
      "##7": 137,
      "##6": 138,
      "##¨": 139,
      "##¢": 140,
      "##®": 141,
      "##½": 142,
      "##¦": 143,
      "##ø": 144,
      "##³": 145,
      "##ß": 146,
      "##æ": 147,
      "##£": 148,
      "##ð": 149,
      "##°": 150,
      "th": 151,
      "the": 152,
      "##er": 153,
      "##in": 154,
      "##nd": 155,
      "##at": 156,
      "##es": 157,
      "##or": 158,
      "##en": 159,
      "##ing": 160,
      "##is": 161,
      "##ou": 162,
      "##on": 163,
      "##ed": 164,
      "and": 165,
      "##ar": 166,
      "to": 167,
      "##ll": 168,
      "of": 169,
      "##an": 170,
      "##it": 171,
      "##re": 172,
      "in": 173,
      "##as": 174,
      "br": 175,
      "is": 176,
      "##om": 177,
      "it": 178,
      "##ic": 179,
      "##le": 180,
      "##ot": 181,
      "wh": 182,
      "##al": 183,
      "be": 184,
      "##ut": 185,
      "##ct": 186,
      "##il": 187,
      "##ie": 188,
      "##ly": 189,
      "##st": 190,
      "on": 191,
      "this": 192,
      "##ov": 193,
      "that": 194,
      "re": 195,
      "st": 196,
      "##ow": 197,
      "##ent": 198,
      "##ad": 199,
      "##ve": 200,
      "##ch": 201,
      "##ion": 202,
      "##et": 203,
      "##ay": 204,
      "##gh": 205,
      "##se": 206,
      "mov": 207,
      "for": 208,
      "as": 209,
      "was": 210,
      "an": 211,
      "##ith": 212,
      "##im": 213,
      "sh": 214,
      "##id": 215,
      "fil": 216,
      "film": 217,
      "se": 218,
      "##all": 219,
      "with": 220,
      "##oo": 221,
      "##ce": 222,
      "##ver": 223,
      "##am": 224,
      "##ld": 225,
      "you": 226,
      "he": 227,
      "##ir": 228,
      "movie": 229,
      "but": 230,
      "ch": 231,
      "ha": 232,
      "##ke": 233,
      "##ur": 234,
      "##ter": 235,
      "li": 236,
      "not": 237,
      "##ill": 238,
      "##her": 239,
      "##ally": 240,
      "##ers": 241,
      "fr": 242,
      "his": 243,
      "##ess": 244,
      "##ck": 245,
      "at": 246,
      "su": 247,
      "pr": 248,
      "are": 249,
      "##est": 250,
      "##ome": 251,
      "##em": 252,
      "##pe": 253,
      "##ould": 254,
      "##ul": 255,
      "so": 256,
      "al": 257,
      "sc": 258,
      "##ri": 259,
      "we": 260,
      "have": 261,
      "her": 262,
      "##ght": 263,
      "do": 264,
      "de": 265,
      "##ain": 266,
      "one": 267,
      "##ust": 268,
      "act": 269,
      "all": 270,
      "ex": 271,
      "who": 272,
      "##un": 273,
      "##ra": 274,
      "pl": 275,
      "ab": 276,
      "##ore": 277,
      "com": 278,
      "##out": 279,
      "##op": 280,
      "##ood": 281,
      "##ab": 282,
      "ne": 283,
      "##ol": 284,
      "##act": 285,
      "ma": 286,
      "they": 287,
      "by": 288,
      "##ant": 289,
      "##el": 290,
      "##art": 291,
      "##ies": 292,
      "##us": 293,
      "##ge": 294,
      "wor": 295,
      "like": 296,
      "or": 297,
      "some": 298,
      "##pp": 299,
      "from": 300,
      "con": 301,
      "##ous": 302,
      "##ere": 303,
      "out": 304,
      "##ist": 305,
      "en": 306,
      "##os": 307,
      "##ast": 308,
      "##th": 309,
      "there": 310,
      "di": 311,
      "##one": 312,
      "##ost": 313,
      "##ven": 314,
      "##ight": 315,
      "##od": 316,
      "just": 317,
      "un": 318,
      "##ation": 319,
      "me": 320,
      "##ough": 321,
      "##um": 322,
      "le": 323,
      "##ate": 324,
      "##au": 325,
      "char": 326,
      "##ich": 327,
      "##fe": 328,
      "about": 329,
      "has": 330,
      "tim": 331,
      "can": 332,
      "##and": 333,
      "if": 334,
      "##ery": 335,
      "##atch": 336,
      "tr": 337,
      "man": 338,
      "what": 339,
      "##ory": 340,
      "##ind": 341,
      "##ard": 342,
      "##ive": 343,
      "##ack": 344,
      "##pt": 345,
      "my": 346,
      "##ort": 347,
      "good": 348,
      "any": 349,
      "ever": 350,
      "she": 351,
      "up": 352,
      "##ud": 353,
      "##ook": 354,
      "##reat": 355,
      "charact": 356,
      "no": 357,
      "when": 358,
      "##ak": 359,
      "more": 360,
      "watch": 361,
      "fe": 362,
      "int": 363,
      "get": 364,
      "very": 365,
      "see": 366,
      "##ong": 367,
      "##ig": 368,
      "would": 369,
      "##ity": 370,
      "go": 371,
      "cl": 372,
      "##ob": 373,
      "story": 374,
      "bec": 375,
      "##ound": 376,
      "even": 377,
      "how": 378,
      "##ite": 379,
      "time": 380,
      "ar": 381,
      "am": 382,
      "##ame": 383,
      "##ff": 384,
      "per": 385,
      "##ther": 386,
      "##able": 387,
      "which": 388,
      "only": 389,
      "##oy": 390,
      "really": 391,
      "had": 392,
      "##hing": 393,
      "##og": 394,
      "##ag": 395,
      "other": 396,
      "show": 397,
      "their": 398,
      "scen": 399,
      "##ious": 400,
      "##ue": 401,
      "than": 402,
      "were": 403,
      "well": 404,
      "##itt": 405,
      "him": 406,
      "te": 407,
      "pe": 408,
      "will": 409,
      "kn": 410,
      "sp": 411,
      "##ap": 412,
      "##ure": 413,
      "##ink": 414,
      "##ick": 415,
      "did": 416,
      "im": 417,
      "##ful": 418,
      "end": 419,
      "does": 420,
      "them": 421,
      "mu": 422,
      "##ars": 423,
      "over": 424,
      "##ine": 425,
      "##ond": 426,
      "##our": 427,
      "great": 428,
      "##man": 429,
      "##ays": 430,
      "bad": 431,
      "##ade": 432,
      "##ence": 433,
      "bet": 434,
      "look": 435,
      "bl": 436,
      "qu": 437,
      "##so": 438,
      "##ci": 439,
      "lov": 440,
      "ad": 441,
      "##ment": 442,
      "##rect": 443,
      "af": 444,
      "##ause": 445,
      "most": 446,
      "much": 447,
      "fa": 448,
      "cr": 449,
      "tw": 450,
      "fir": 451,
      "thr": 452,
      "##ish": 453,
      "don": 454,
      "could": 455,
      "us": 456,
      "peop": 457,
      "##pl": 458,
      "##ice": 459,
      "every": 460,
      "dis": 461,
      "pre": 462,
      "been": 463,
      "people": 464,
      "po": 465,
      "direct": 466,
      "sa": 467,
      "first": 468,
      "also": 469,
      "into": 470,
      "##iv": 471,
      "because": 472,
      "too": 473,
      "think": 474,
      "know": 475,
      "ag": 476,
      "##ose": 477,
      "##ple": 478,
      "##ide": 479,
      "off": 480,
      "##int": 481,
      "##lf": 482,
      "##ble": 483,
      "part": 484,
      "wr": 485,
      "real": 486,
      "##age": 487,
      "##other": 488,
      "##ass": 489,
      "##per": 490,
      "made": 491,
      "way": 492,
      "##oll": 493,
      "make": 494,
      "thing": 495,
      "car": 496,
      "its": 497,
      "after": 498,
      "##ors": 499,
      "then": 500,
      "##for": 501,
      "gu": 502,
      "ye": 503,
      "fun": 504,
      "mak": 505,
      "##ile": 506,
      "##ict": 507,
      "fl": 508,
      "##pr": 509,
      "##te": 510,
      "##ry": 511,
      "movies": 512,
      "##ull": 513,
      "seem": 514,
      "##ated": 515,
      "##gin": 516,
      "gr": 517,
      "inter": 518,
      "work": 519,
      "##ces": 520,
      "##ty": 521,
      "ser": 522,
      "character": 523,
      "##ary": 524,
      "ro": 525,
      "##cc": 526,
      "##ually": 527,
      "##ical": 528,
      "##ian": 529,
      "play": 530,
      "##own": 531,
      "aw": 532,
      "##iew": 533,
      "characters": 534,
      "##ep": 535,
      "plot": 536,
      "##qu": 537,
      "love": 538,
      "##tain": 539,
      "two": 540,
      "films": 541,
      "##pect": 542,
      "dr": 543,
      "##ach": 544,
      "your": 545,
      "never": 546,
      "##fect": 547,
      "being": 548,
      "##iz": 549,
      "##ber": 550,
      "seen": 551,
      "##self": 552,
      "many": 553,
      "life": 554,
      "where": 555,
      "want": 556,
      "som": 557,
      "##ance": 558,
      "des": 559,
      "##ny": 560,
      "jo": 561,
      "##ittle": 562,
      "acting": 563,
      "best": 564,
      "hor": 565,
      "little": 566,
      "somet": 567,
      "##ves": 568,
      "say": 569,
      "##ens": 570,
      "back": 571,
      "##nder": 572,
      "through": 573,
      "##urn": 574,
      "##ip": 575,
      "##wn": 576,
      "##oc": 577,
      "##ans": 578,
      "rem": 579,
      "##ving": 580,
      "##get": 581,
      "##ath": 582,
      "##ang": 583,
      "##ark": 584,
      "19": 585,
      "may": 586,
      "##ake": 587,
      "##ents": 588,
      "##ily": 589,
      "##oss": 590,
      "sl": 591,
      "##ne": 592,
      "ve": 593,
      "spe": 594,
      "##ather": 595,
      "rec": 596,
      "##ild": 597,
      "here": 598,
      "##ult": 599,
      "str": 600,
      "still": 601,
      "better": 602,
      "##we": 603,
      "##ise": 604,
      "##ace": 605,
      "##ire": 606,
      "##ions": 607,
      "##ph": 608,
      "ke": 609,
      "should": 610,
      "perfor": 611,
      "##ia": 612,
      "##ual": 613,
      "min": 614,
      "again": 615,
      "find": 616,
      "bel": 617,
      "kill": 618,
      "these": 619,
      "att": 620,
      "under": 621,
      "scene": 622,
      "new": 623,
      "old": 624,
      "##augh": 625,
      "why": 626,
      "while": 627,
      "feel": 628,
      "prob": 629,
      "##igh": 630,
      "##thing": 631,
      "##ase": 632,
      "res": 633,
      "##ought": 634,
      "inc": 635,
      "now": 636,
      "scenes": 637,
      "sim": 638,
      "##ting": 639,
      "em": 640,
      "such": 641,
      "something": 642,
      "##ater": 643,
      "gen": 644,
      "##iend": 645,
      "10": 646,
      "cast": 647,
      "##oth": 648,
      "happ": 649,
      "##ning": 650,
      "interest": 651,
      "##odu": 652,
      "ap": 653,
      "fam": 654,
      "hum": 655,
      "##ably": 656,
      "##ac": 657,
      "sur": 658,
      "gir": 659,
      "lot": 660,
      "##ree": 661,
      "##are": 662,
      "point": 663,
      "mus": 664,
      "##if": 665,
      "##me": 666,
      "ev": 667,
      "##ating": 668,
      "##ason": 669,
      "##ever": 670,
      "fin": 671,
      "scre": 672,
      "cont": 673,
      "performan": 674,
      "##fore": 675,
      "wom": 676,
      "those": 677,
      "##alk": 678,
      "##ense": 679,
      "##arly": 680,
      "##ations": 681,
      "##oun": 682,
      "watching": 683,
      "##be": 684,
      "##less": 685,
      "es": 686,
      "doesn": 687,
      "director": 688,
      "though": 689,
      "dec": 690,
      "##ying": 691,
      "down": 692,
      "years": 693,
      "set": 694,
      "actors": 695,
      "##ng": 696,
      "che": 697,
      "big": 698,
      "sm": 699,
      "ob": 700,
      "##li": 701,
      "##ror": 702,
      "##joy": 703,
      "didn": 704,
      "before": 705,
      "enjoy": 706,
      "id": 707,
      "##ect": 708,
      "##ial": 709,
      "guy": 710,
      "another": 711,
      "view": 712,
      "young": 713,
      "ter": 714,
      "nothing": 715,
      "funny": 716,
      "##vel": 717,
      "comed": 718,
      "tak": 719,
      "start": 720,
      "fact": 721,
      "actually": 722,
      "##av": 723,
      "high": 724,
      "makes": 725,
      "long": 726,
      "ori": 727,
      "mis": 728,
      "exce": 729,
      "belie": 730,
      "##az": 731,
      "##ock": 732,
      "produ": 733,
      "comp": 734,
      "war": 735,
      "going": 736,
      "mar": 737,
      "rel": 738,
      "few": 739,
      "tri": 740,
      "girl": 741,
      "pret": 742,
      "##erson": 743,
      "same": 744,
      "world": 745,
      "origin": 746,
      "##ute": 747,
      "got": 748,
      "turn": 749,
      "supp": 750,
      "ind": 751,
      "app": 752,
      "##ience": 753,
      "ho": 754,
      "tra": 755,
      "##ash": 756,
      "hard": 757,
      "diff": 758,
      "##ub": 759,
      "sub": 760,
      "bit": 761,
      "sec": 762,
      "own": 763,
      "##aw": 764,
      "##ool": 765,
      "sin": 766,
      "##cial": 767,
      "ph": 768,
      "##ible": 769,
      "thought": 770,
      "el": 771,
      "##ript": 772,
      "inv": 773,
      "friend": 774,
      "##ft": 775,
      "##der": 776,
      "wond": 777,
      "ed": 778,
      "far": 779,
      "quite": 780,
      "##ave": 781,
      "laugh": 782,
      "screen": 783,
      "stu": 784,
      "comple": 785,
      "things": 786,
      "pretty": 787,
      "bu": 788,
      "need": 789,
      "right": 790,
      "##eric": 791,
      "##ffect": 792,
      "ins": 793,
      "kid": 794,
      "bas": 795,
      "##aut": 796,
      "seems": 797,
      "around": 798,
      "##les": 799,
      "horror": 800,
      "##iting": 801,
      "bor": 802,
      "original": 803,
      "##ction": 804,
      "wonder": 805,
      "effect": 806,
      "##ib": 807,
      "take": 808,
      "however": 809,
      "cam": 810,
      "acc": 811,
      "person": 812,
      "inst": 813,
      "##ings": 814,
      "hel": 815,
      "script": 816,
      "enough": 817,
      "##ways": 818,
      "##ved": 819,
      "##ced": 820,
      "series": 821,
      "##ween": 822,
      "enter": 823,
      "both": 824,
      "cra": 825,
      "##arr": 826,
      "##ention": 827,
      "##ons": 828,
      "class": 829,
      "between": 830,
      "action": 831,
      "give": 832,
      "##ically": 833,
      "americ": 834,
      "child": 835,
      "kind": 836,
      "##ately": 837,
      "must": 838,
      "appe": 839,
      "sex": 840,
      "op": 841,
      "mom": 842,
      "read": 843,
      "beaut": 844,
      "tell": 845,
      "cons": 846,
      "come": 847,
      "##ness": 848,
      "without": 849,
      "comedy": 850,
      "let": 851,
      "times": 852,
      "always": 853,
      "ep": 854,
      "##inem": 855,
      "alm": 856,
      "hand": 857,
      "music": 858,
      "saw": 859,
      "last": 860,
      "reason": 861,
      "put": 862,
      "rev": 863,
      "##ell": 864,
      "gets": 865,
      "family": 866,
      "isn": 867,
      "cinem": 868,
      "interesting": 869,
      "role": 870,
      "##ead": 871,
      "##ug": 872,
      "##utes": 873,
      "co": 874,
      "##ale": 875,
      "almost": 876,
      "main": 877,
      "##vious": 878,
      "art": 879,
      "##icul": 880,
      "##ouse": 881,
      "least": 882,
      "sure": 883,
      "whole": 884,
      "done": 885,
      "aud": 886,
      "par": 887,
      "mon": 888,
      "shot": 889,
      "lead": 890,
      "ll": 891,
      "sound": 892,
      "book": 893,
      "##ward": 894,
      "might": 895,
      "##its": 896,
      "expect": 897,
      "differ": 898,
      "cle": 899,
      "##ody": 900,
      "##ully": 901,
      "##ines": 902,
      "sch": 903,
      "##press": 904,
      "##ner": 905,
      "##ks": 906,
      "expl": 907,
      "ide": 908,
      "##ount": 909,
      "making": 910,
      "worth": 911,
      "##app": 912,
      "##ress": 913,
      "anything": 914,
      "minutes": 915,
      "gl": 916,
      "run": 917,
      "##raph": 918,
      "cour": 919,
      "complete": 920,
      "begin": 921,
      "since": 922,
      "call": 923,
      "super": 924,
      "night": 925,
      "performance": 926,
      "##hn": 927,
      "##oot": 928,
      "##over": 929,
      "day": 930,
      "##ently": 931,
      "##ane": 932,
      "woman": 933,
      "pol": 934,
      "boy": 935,
      "probably": 936,
      "##rible": 937,
      "help": 938,
      "entertain": 939,
      "yet": 940,
      "care": 941,
      "##ord": 942,
      "##uring": 943,
      "##son": 944,
      "tv": 945,
      "john": 946,
      "away": 947,
      "chr": 948,
      "ext": 949,
      "ste": 950,
      "##lem": 951,
      "imp": 952,
      "add": 953,
      "rob": 954,
      "##cially": 955,
      "mean": 956,
      "rather": 957,
      "##stand": 958,
      "worst": 959,
      "mat": 960,
      "##ail": 961,
      "##oney": 962,
      "##red": 963,
      "abs": 964,
      "ty": 965,
      "found": 966,
      "sequ": 967,
      "our": 968,
      "##xt": 969,
      "comm": 970,
      "##ign": 971,
      "##alog": 972,
      "pres": 973,
      "##ism": 974,
      "##ative": 975,
      "poor": 976,
      "vers": 977,
      "gi": 978,
      "ent": 979,
      "miss": 980,
      "##ures": 981,
      "##ition": 982,
      "##als": 983,
      "##isod": 984,
      "anyone": 985,
      "episod": 986,
      "##istic": 987,
      "mind": 988,
      "ac": 989,
      "less": 990,
      "def": 991,
      "##ives": 992,
      "played": 993,
      "bo": 994,
      "each": 995,
      "##mend": 996,
      "##apt": 997,
      "star": 998,
      "happen": 999,
      "cre": 1000,
      "##ange": 1001,
      "dialog": 1002,
      "mur": 1003,
      "espe": 1004,
      "alth": 1005,
      "having": 1006,
      "##ady": 1007,
      "although": 1008,
      "especially": 1009,
      "pro": 1010,
      "##osed": 1011,
      "anim": 1012,
      "keep": 1013,
      "##ember": 1014,
      "hal": 1015,
      "bud": 1016,
      "##umb": 1017,
      "lik": 1018,
      "believe": 1019,
      "course": 1020,
      "unf": 1021,
      "##ert": 1022,
      "job": 1023,
      "second": 1024,
      "surpr": 1025,
      "sk": 1026,
      "ey": 1027,
      "##led": 1028,
      "comes": 1029,
      "looking": 1030,
      "##ten": 1031,
      "trying": 1032,
      "##wood": 1033,
      "##ling": 1034,
      "rest": 1035,
      "##aster": 1036,
      "dv": 1037,
      "place": 1038,
      "##ject": 1039,
      "house": 1040,
      "goes": 1041,
      "year": 1042,
      "stand": 1043,
      "port": 1044,
      "sense": 1045,
      "##00": 1046,
      "black": 1047,
      "##ither": 1048,
      "##ollow": 1049,
      "perfect": 1050,
      "conf": 1051,
      "looks": 1052,
      "##olly": 1053,
      "dvd": 1054,
      "different": 1055,
      "##ife": 1056,
      "dram": 1057,
      "actor": 1058,
      "##ograph": 1059,
      "##ingly": 1060,
      "money": 1061,
      "dan": 1062,
      "problem": 1063,
      "ending": 1064,
      "true": 1065,
      "##ret": 1066,
      "head": 1067,
      "maybe": 1068,
      "##here": 1069,
      "##ertain": 1070,
      "someone": 1071,
      "vis": 1072,
      "##empt": 1073,
      "wasn": 1074,
      "once": 1075,
      "cou": 1076,
      "prov": 1077,
      "fan": 1078,
      "everything": 1079,
      "##ah": 1080,
      "##ates": 1081,
      "gra": 1082,
      "##lud": 1083,
      "low": 1084,
      "creat": 1085,
      "##iter": 1086,
      "short": 1087,
      "##ney": 1088,
      "##ank": 1089,
      "nice": 1090,
      "pa": 1091,
      "shows": 1092,
      "##ics": 1093,
      "men": 1094,
      "pow": 1095,
      "##hip": 1096,
      "follow": 1097,
      "recom": 1098,
      "##oint": 1099,
      "three": 1100,
      "##iful": 1101,
      "ann": 1102,
      "recommend": 1103,
      "##ues": 1104,
      "talk": 1105,
      "american": 1106,
      "half": 1107,
      "fall": 1108,
      "mor": 1109,
      "imag": 1110,
      "##ments": 1111,
      "fav": 1112,
      "dre": 1113,
      "cor": 1114,
      "certain": 1115,
      "sing": 1116,
      "##iece": 1117,
      "toget": 1118,
      "together": 1119,
      "poss": 1120,
      "eng": 1121,
      "det": 1122,
      "death": 1123,
      "##ider": 1124,
      "rom": 1125,
      "watched": 1126,
      "obvious": 1127,
      "ele": 1128,
      "nor": 1129,
      "##aps": 1130,
      "special": 1131,
      "father": 1132,
      "everyone": 1133,
      "sy": 1134,
      "plays": 1135,
      "##ality": 1136,
      "exper": 1137,
      "effects": 1138,
      "later": 1139,
      "dra": 1140,
      "audience": 1141,
      "said": 1142,
      "takes": 1143,
      "excell": 1144,
      "instead": 1145,
      "review": 1146,
      "home": 1147,
      "form": 1148,
      "top": 1149,
      "##ilar": 1150,
      "beautiful": 1151,
      "dead": 1152,
      "hour": 1153,
      "sit": 1154,
      "left": 1155,
      "himself": 1156,
      "ple": 1157,
      "version": 1158,
      "tit": 1159,
      "christ": 1160,
      "##ortun": 1161,
      "else": 1162,
      "wife": 1163,
      "##ences": 1164,
      "##cing": 1165,
      "heart": 1166,
      "rele": 1167,
      "understand": 1168,
      "during": 1169,
      "##ames": 1170,
      "sus": 1171,
      "simp": 1172,
      "camer": 1173,
      "##ern": 1174,
      "exc": 1175,
      "##sy": 1176,
      "sty": 1177,
      "##ray": 1178,
      "friends": 1179,
      "##ollywood": 1180,
      "seeing": 1181,
      "##land": 1182,
      "##way": 1183,
      "tal": 1184,
      "red": 1185,
      "dist": 1186,
      "lu": 1187,
      "##ier": 1188,
      "bre": 1189,
      "came": 1190,
      "excellent": 1191,
      "##atic": 1192,
      "##ted": 1193,
      "##omb": 1194,
      "##ro": 1195,
      "entire": 1196,
      "##ited": 1197,
      "fight": 1198,
      "use": 1199,
      "defin": 1200,
      "col": 1201,
      "idea": 1202,
      "##ists": 1203,
      "sad": 1204,
      "disc": 1205,
      "serious": 1206,
      "ass": 1207,
      "tot": 1208,
      "##pid": 1209,
      "##ird": 1210,
      "feat": 1211,
      "##uth": 1212,
      "tru": 1213,
      "##0s": 1214,
      "includ": 1215,
      "beh": 1216,
      "##ional": 1217,
      "remember": 1218,
      "hist": 1219,
      "vi": 1220,
      "pict": 1221,
      "##itch": 1222,
      "##arn": 1223,
      "##fully": 1224,
      "##ren": 1225,
      "unt": 1226,
      "##day": 1227,
      "ang": 1228,
      "invol": 1229,
      "stud": 1230,
      "##ime": 1231,
      "human": 1232,
      "##ides": 1233,
      "wa": 1234,
      "simply": 1235,
      "line": 1236,
      "mem": 1237,
      "ref": 1238,
      "##gg": 1239,
      "##ton": 1240,
      "##ix": 1241,
      "song": 1242,
      "vide": 1243,
      "budget": 1244,
      "##io": 1245,
      "disapp": 1246,
      "##vin": 1247,
      "##ster": 1248,
      "attempt": 1249,
      "stupid": 1250,
      "hollywood": 1251,
      "gener": 1252,
      "lack": 1253,
      "disappoint": 1254,
      "wrong": 1255,
      "##dd": 1256,
      "##ised": 1257,
      "##ets": 1258,
      "dark": 1259,
      "##ented": 1260,
      "ir": 1261,
      "mess": 1262,
      "hero": 1263,
      "ret": 1264,
      "open": 1265,
      "completely": 1266,
      "full": 1267,
      "cop": 1268,
      "hope": 1269,
      "supposed": 1270,
      "used": 1271,
      "eas": 1272,
      "##ared": 1273,
      "along": 1274,
      "##ann": 1275,
      "nat": 1276,
      "either": 1277,
      "dep": 1278,
      "absol": 1279,
      "##ired": 1280,
      "try": 1281,
      "except": 1282,
      "sw": 1283,
      "given": 1284,
      "word": 1285,
      "ra": 1286,
      "##ru": 1287,
      "count": 1288,
      "kids": 1289,
      "absolute": 1290,
      "mod": 1291,
      "loc": 1292,
      "win": 1293,
      "classic": 1294,
      "conc": 1295,
      "small": 1296,
      "performances": 1297,
      "women": 1298,
      "amaz": 1299,
      "school": 1300,
      "particul": 1301,
      "boring": 1302,
      "bat": 1303,
      "##cy": 1304,
      "pain": 1305,
      "##ied": 1306,
      "light": 1307,
      "fail": 1308,
      "##oon": 1309,
      "coll": 1310,
      "won": 1311,
      "##itten": 1312,
      "ok": 1313,
      "production": 1314,
      "##tle": 1315,
      "adv": 1316,
      "dou": 1317,
      "blood": 1318,
      "##cept": 1319,
      "consider": 1320,
      "camera": 1321,
      "until": 1322,
      "exam": 1323,
      "##ize": 1324,
      "pass": 1325,
      "##ew": 1326,
      "dri": 1327,
      "awful": 1328,
      "emot": 1329,
      "##ography": 1330,
      "stars": 1331,
      "viol": 1332,
      "bar": 1333,
      "hu": 1334,
      "rich": 1335,
      "mid": 1336,
      "##ters": 1337,
      "murder": 1338,
      "sat": 1339,
      "truly": 1340,
      "##ys": 1341,
      "video": 1342,
      "jack": 1343,
      "becom": 1344,
      "favor": 1345,
      "sort": 1346,
      "reg": 1347,
      "couple": 1348,
      "mr": 1349,
      "next": 1350,
      "ge": 1351,
      "##vers": 1352,
      "spo": 1353,
      "##elt": 1354,
      "##oice": 1355,
      "mich": 1356,
      "cut": 1357,
      "av": 1358,
      "##wh": 1359,
      "god": 1360,
      "##velop": 1361,
      "name": 1362,
      "brother": 1363,
      "definite": 1364,
      "##haps": 1365,
      "power": 1366,
      "gre": 1367,
      "##sc": 1368,
      "perhaps": 1369,
      "cred": 1370,
      "##que": 1371,
      "##ities": 1372,
      "face": 1373,
      "portray": 1374,
      "rid": 1375,
      "##ote": 1376,
      "slow": 1377,
      "sever": 1378,
      "flick": 1379,
      "cur": 1380,
      "moments": 1381,
      "yes": 1382,
      "##oles": 1383,
      "##gr": 1384,
      "##aring": 1385,
      "episode": 1386,
      "wonderful": 1387,
      "##iness": 1388,
      "live": 1389,
      "walk": 1390,
      "##air": 1391,
      "##olog": 1392,
      "desp": 1393,
      "sn": 1394,
      "dem": 1395,
      "terrible": 1396,
      "##ott": 1397,
      "cent": 1398,
      "playing": 1399,
      "fant": 1400,
      "##ric": 1401,
      "getting": 1402,
      "mother": 1403,
      "##sel": 1404,
      "humor": 1405,
      "##ories": 1406,
      "written": 1407,
      "##ased": 1408,
      "##lish": 1409,
      "har": 1410,
      "early": 1411,
      "doing": 1412,
      "master": 1413,
      "often": 1414,
      "style": 1415,
      "develop": 1416,
      "others": 1417,
      "pop": 1418,
      "##ility": 1419,
      "actress": 1420,
      "##illi": 1421,
      "##rib": 1422,
      "definitely": 1423,
      "gives": 1424,
      "dav": 1425,
      "unfortun": 1426,
      "##mer": 1427,
      "mag": 1428,
      "guess": 1429,
      "##unch": 1430,
      "itself": 1431,
      "stop": 1432,
      "##amp": 1433,
      "lines": 1434,
      "case": 1435,
      "lost": 1436,
      "##ief": 1437,
      "##ler": 1438,
      "become": 1439,
      "dialogue": 1440,
      "piece": 1441,
      "##ison": 1442,
      "trans": 1443,
      "finally": 1444,
      "##ork": 1445,
      "felt": 1446,
      "strong": 1447,
      "quest": 1448,
      "white": 1449,
      "capt": 1450,
      "impress": 1451,
      "##enn": 1452,
      "cinema": 1453,
      "##ized": 1454,
      "oh": 1455,
      "liked": 1456,
      "thrill": 1457,
      "##ming": 1458,
      "val": 1459,
      "children": 1460,
      "##cum": 1461,
      "##med": 1462,
      "couldn": 1463,
      "side": 1464,
      "extre": 1465,
      "son": 1466,
      "##kes": 1467,
      "##ident": 1468,
      "title": 1469,
      "##body": 1470,
      "close": 1471,
      "pur": 1472,
      "##ibly": 1473,
      "picture": 1474,
      "absolutely": 1475,
      "cann": 1476,
      "went": 1477,
      "##ael": 1478,
      "##ows": 1479,
      "##ush": 1480,
      "uni": 1481,
      "##ony": 1482,
      "against": 1483,
      "unc": 1484,
      "##ouch": 1485,
      "waste": 1486,
      "worse": 1487,
      "evil": 1488,
      "certainly": 1489,
      "mention": 1490,
      "vict": 1491,
      "past": 1492,
      "##ont": 1493,
      "succ": 1494,
      "killer": 1495,
      "nov": 1496,
      "deli": 1497,
      "##illiant": 1498,
      "brilliant": 1499,
      "support": 1500,
      "town": 1501,
      "entertaining": 1502,
      "hit": 1503,
      "##oid": 1504,
      "overall": 1505,
      "contr": 1506,
      "adm": 1507,
      "##ley": 1508,
      "fans": 1509,
      "called": 1510,
      "based": 1511,
      "relations": 1512,
      "loved": 1513,
      "rock": 1514,
      "beginning": 1515,
      "fair": 1516,
      "spoil": 1517,
      "extreme": 1518,
      "##ains": 1519,
      "stre": 1520,
      "several": 1521,
      "##illy": 1522,
      "hon": 1523,
      "##imes": 1524,
      "##arth": 1525,
      "drama": 1526,
      "pet": 1527,
      "##my": 1528,
      "et": 1529,
      "##ump": 1530,
      "##ular": 1531,
      "list": 1532,
      "lives": 1533,
      "pred": 1534,
      "##ract": 1535,
      "pat": 1536,
      "##ready": 1537,
      "##ured": 1538,
      "direction": 1539,
      "##used": 1540,
      "dev": 1541,
      "##ins": 1542,
      "psy": 1543,
      "wood": 1544,
      "already": 1545,
      "becomes": 1546,
      "la": 1547,
      "del": 1548,
      "psych": 1549,
      "##ams": 1550,
      "med": 1551,
      "inf": 1552,
      "example": 1553,
      "michael": 1554,
      "##yn": 1555,
      "success": 1556,
      "break": 1557,
      "##rif": 1558,
      "despite": 1559,
      "##selves": 1560,
      "seemed": 1561,
      "fine": 1562,
      "vill": 1563,
      "zomb": 1564,
      "throughout": 1565,
      "##orn": 1566,
      "##eng": 1567,
      "unfortunately": 1568,
      "wanted": 1569,
      "##ision": 1570,
      "##tern": 1571,
      "##ts": 1572,
      "je": 1573,
      "##aughter": 1574,
      "final": 1575,
      "self": 1576,
      "history": 1577,
      "writing": 1578,
      "##amed": 1579,
      "##line": 1580,
      "relationship": 1581,
      "game": 1582,
      "touch": 1583,
      "amazing": 1584,
      "tech": 1585,
      "##ms": 1586,
      "##osp": 1587,
      "##ior": 1588,
      "##king": 1589,
      "rep": 1590,
      "fem": 1591,
      "200": 1592,
      "totally": 1593,
      "num": 1594,
      "guys": 1595,
      "##play": 1596,
      "quality": 1597,
      "cult": 1598,
      "annoy": 1599,
      "fre": 1600,
      "pick": 1601,
      "soon": 1602,
      "occ": 1603,
      "works": 1604,
      "wants": 1605,
      "gun": 1606,
      "tre": 1607,
      "##ement": 1608,
      "sci": 1609,
      "behind": 1610,
      "deser": 1611,
      "lar": 1612,
      "tom": 1613,
      "##ove": 1614,
      "prom": 1615,
      "tries": 1616,
      "mot": 1617,
      "##oup": 1618,
      "cost": 1619,
      "##ister": 1620,
      "##orge": 1621,
      "##ided": 1622,
      "ben": 1623,
      "days": 1624,
      "mark": 1625,
      "maj": 1626,
      "foot": 1627,
      "##uss": 1628,
      "viewer": 1629,
      "able": 1630,
      "eff": 1631,
      "comment": 1632,
      "appar": 1633,
      "##riend": 1634,
      "manag": 1635,
      "genre": 1636,
      "stuff": 1637,
      "mad": 1638,
      "##ape": 1639,
      "turns": 1640,
      "swe": 1641,
      "##ged": 1642,
      "enjoyed": 1643,
      "today": 1644,
      "shoot": 1645,
      "deal": 1646,
      "novel": 1647,
      "prop": 1648,
      "docum": 1649,
      "wish": 1650,
      "sol": 1651,
      "##cess": 1652,
      "stra": 1653,
      "prof": 1654,
      "favorite": 1655,
      "late": 1656,
      "ant": 1657,
      "eyes": 1658,
      "##ination": 1659,
      "hell": 1660,
      "techn": 1661,
      "import": 1662,
      "fig": 1663,
      "crit": 1664,
      "contin": 1665,
      "etc": 1666,
      "learn": 1667,
      "age": 1668,
      "sle": 1669,
      "##unk": 1670,
      "##ude": 1671,
      "starts": 1672,
      "met": 1673,
      "##iss": 1674,
      "##ined": 1675,
      "sometimes": 1676,
      "gave": 1677,
      "incred": 1678,
      "appear": 1679,
      "lea": 1680,
      "bur": 1681,
      "bus": 1682,
      "typ": 1683,
      "##ese": 1684,
      "girls": 1685,
      "susp": 1686,
      "city": 1687,
      "level": 1688,
      "##ger": 1689,
      "directed": 1690,
      "moment": 1691,
      "##ution": 1692,
      "horrible": 1693,
      "intell": 1694,
      "##by": 1695,
      "##itive": 1696,
      "exact": 1697,
      "parts": 1698,
      "speak": 1699,
      "situ": 1700,
      "##ards": 1701,
      "const": 1702,
      "inde": 1703,
      "themselves": 1704,
      "stories": 1705,
      "thinking": 1706,
      "##ific": 1707,
      "robert": 1708,
      "du": 1709,
      "##ench": 1710,
      "##using": 1711,
      "major": 1712,
      "return": 1713,
      "hot": 1714,
      "opp": 1715,
      "voice": 1716,
      "musical": 1717,
      "event": 1718,
      "cinemat": 1719,
      "type": 1720,
      "document": 1721,
      "group": 1722,
      "room": 1723,
      "obviously": 1724,
      "brit": 1725,
      "plan": 1726,
      "##etic": 1727,
      "decent": 1728,
      "bab": 1729,
      "##iving": 1730,
      "hop": 1731,
      "non": 1732,
      "paul": 1733,
      "##vable": 1734,
      "writer": 1735,
      "bro": 1736,
      "##astic": 1737,
      "matter": 1738,
      "highly": 1739,
      "myself": 1740,
      "##ural": 1741,
      "mil": 1742,
      "##yp": 1743,
      "feeling": 1744,
      "daughter": 1745,
      "hus": 1746,
      "rent": 1747,
      "##iet": 1748,
      "teen": 1749,
      "##old": 1750,
      "four": 1751,
      "hilar": 1752,
      "ridicul": 1753,
      "chang": 1754,
      "ger": 1755,
      "##band": 1756,
      "anyway": 1757,
      "##where": 1758,
      "##ered": 1759,
      "effort": 1760,
      "mill": 1761,
      "weak": 1762,
      "roles": 1763,
      "tele": 1764,
      "##ung": 1765,
      "heard": 1766,
      "killed": 1767,
      "king": 1768,
      "says": 1769,
      "##ien": 1770,
      "marri": 1771,
      "convin": 1772,
      "leave": 1773,
      "police": 1774,
      "husband": 1775,
      "james": 1776,
      "hold": 1777,
      "##antly": 1778,
      "##like": 1779,
      "##ising": 1780,
      "took": 1781,
      "predict": 1782,
      "cannot": 1783,
      "ridiculous": 1784,
      "rating": 1785,
      "##ipp": 1786,
      "strange": 1787,
      "violence": 1788,
      "air": 1789,
      "##dle": 1790,
      "fut": 1791,
      "living": 1792,
      "##ma": 1793,
      "bring": 1794,
      "mel": 1795,
      "shock": 1796,
      "gar": 1797,
      "stay": 1798,
      "happens": 1799,
      "cool": 1800,
      "##ross": 1801,
      "known": 1802,
      "##dy": 1803,
      "mart": 1804,
      "##antic": 1805,
      "particularly": 1806,
      "involved": 1807,
      "happened": 1808,
      "season": 1809,
      "chance": 1810,
      "##up": 1811,
      "crap": 1812,
      "##gan": 1813,
      "step": 1814,
      "##ax": 1815,
      "wouldn": 1816,
      "extremely": 1817,
      "gore": 1818,
      "none": 1819,
      "##els": 1820,
      "check": 1821,
      "esc": 1822,
      "##gn": 1823,
      "camp": 1824,
      "var": 1825,
      "told": 1826,
      "coming": 1827,
      "polit": 1828,
      "er": 1829,
      "alone": 1830,
      "hilarious": 1831,
      "##eless": 1832,
      "opin": 1833,
      "experience": 1834,
      "##he": 1835,
      "##ering": 1836,
      "order": 1837,
      "david": 1838,
      "cheap": 1839,
      "law": 1840,
      "pot": 1841,
      "pay": 1842,
      "result": 1843,
      "including": 1844,
      "country": 1845,
      "clich": 1846,
      "please": 1847,
      "deep": 1848,
      "pos": 1849,
      "body": 1850,
      "sil": 1851,
      "ru": 1852,
      "quick": 1853,
      "cat": 1854,
      "land": 1855,
      "simple": 1856,
      "desc": 1857,
      "lou": 1858,
      "##gu": 1859,
      "honest": 1860,
      "ten": 1861,
      "##lt": 1862,
      "sum": 1863,
      "spir": 1864,
      "dest": 1865,
      "ago": 1866,
      "forget": 1867,
      "score": 1868,
      "##ik": 1869,
      "##mak": 1870,
      "##zy": 1871,
      "jap": 1872,
      "##urb": 1873,
      "save": 1874,
      "##ett": 1875,
      "##iest": 1876,
      "##ek": 1877,
      "phot": 1878,
      "foc": 1879,
      "english": 1880,
      "ill": 1881,
      "osc": 1882,
      "##iff": 1883,
      "earth": 1884,
      "number": 1885,
      "japan": 1886,
      "##lling": 1887,
      "##ential": 1888,
      "looked": 1889,
      "fill": 1890,
      "sent": 1891,
      "##ether": 1892,
      "frank": 1893,
      "career": 1894,
      "huge": 1895,
      "myst": 1896,
      "##akes": 1897,
      "##cer": 1898,
      "suff": 1899,
      "seriously": 1900,
      "##owing": 1901,
      "possible": 1902,
      "fur": 1903,
      "##vision": 1904,
      "##esh": 1905,
      "annoying": 1906,
      "treat": 1907,
      "##use": 1908,
      "##arch": 1909,
      "similar": 1910,
      "sor": 1911,
      "apart": 1912,
      "exactly": 1913,
      "##bo": 1914,
      "shown": 1915,
      "avoid": 1916,
      "running": 1917,
      "##ational": 1918,
      "scary": 1919,
      "taken": 1920,
      "sym": 1921,
      "yourself": 1922,
      "198": 1923,
      "##outh": 1924,
      "reality": 1925,
      "mist": 1926,
      "whose": 1927,
      "secret": 1928,
      "released": 1929,
      "cinematography": 1930,
      "near": 1931,
      "ends": 1932,
      "mc": 1933,
      "##uck": 1934,
      "##co": 1935,
      "usually": 1936,
      "dam": 1937,
      "hours": 1938,
      "prem": 1939,
      "jokes": 1940,
      "opening": 1941,
      "ult": 1942,
      "straight": 1943,
      "post": 1944,
      "##ances": 1945,
      "ones": 1946,
      "dog": 1947,
      "modern": 1948,
      "##br": 1949,
      "197": 1950,
      "ear": 1951,
      "sam": 1952,
      "##side": 1953,
      "##what": 1954,
      "wes": 1955,
      "across": 1956,
      "##enty": 1957,
      "middle": 1958,
      "willi": 1959,
      "usual": 1960,
      "opinion": 1961,
      "somewhat": 1962,
      "gold": 1963,
      "happy": 1964,
      "talent": 1965,
      "##nds": 1966,
      "##ustr": 1967,
      "doub": 1968,
      "change": 1969,
      "pull": 1970,
      "ut": 1971,
      "##nded": 1972,
      "cla": 1973,
      "started": 1974,
      "##itting": 1975,
      "narr": 1976,
      "filmmak": 1977,
      "##ians": 1978,
      "eye": 1979,
      "single": 1980,
      "##ram": 1981,
      "##ina": 1982,
      "##ground": 1983,
      "##ino": 1984,
      "##iety": 1985,
      "##wards": 1986,
      "taking": 1987,
      "talking": 1988,
      "documentary": 1989,
      "build": 1990,
      "##ator": 1991,
      "gh": 1992,
      "odd": 1993,
      "exist": 1994,
      "##ival": 1995,
      "finds": 1996,
      "shots": 1997,
      "prot": 1998,
      "among": 1999,
      "saying": 2000,
      "female": 2001,
      "ask": 2002,
      "intr": 2003,
      "mostly": 2004,
      "cart": 2005,
      "sold": 2006,
      "episodes": 2007,
      "richard": 2008,
      "fast": 2009,
      "jer": 2010,
      "subject": 2011,
      "suspense": 2012,
      "##ained": 2013,
      "five": 2014,
      "bill": 2015,
      "sign": 2016,
      "meet": 2017,
      "important": 2018,
      "##ec": 2019,
      "##ield": 2020,
      "exp": 2021,
      "turned": 2022,
      "##ones": 2023,
      "##otic": 2024,
      "##ugg": 2025,
      "##anger": 2026,
      "deliver": 2027,
      "inn": 2028,
      "respect": 2029,
      "apparently": 2030,
      "##sh": 2031,
      "disappointed": 2032,
      "##lic": 2033,
      "due": 2034,
      "aren": 2035,
      "##form": 2036,
      "creep": 2037,
      "local": 2038,
      "remind": 2039,
      "vir": 2040,
      "atm": 2041,
      "events": 2042,
      "box": 2043,
      "20": 2044,
      "songs": 2045,
      "emb": 2046,
      "intellig": 2047,
      "attention": 2048,
      "basically": 2049,
      "atmosp": 2050,
      "comic": 2051,
      "television": 2052,
      "space": 2053,
      "future": 2054,
      "jud": 2055,
      "knows": 2056,
      "british": 2057,
      "##ubb": 2058,
      "bey": 2059,
      "clearly": 2060,
      "romantic": 2061,
      "supporting": 2062,
      "knew": 2063,
      "199": 2064,
      "##ball": 2065,
      "thriller": 2066,
      "cap": 2067,
      "##ald": 2068,
      "##ants": 2069,
      "compl": 2070,
      "##bel": 2071,
      "easily": 2072,
      "stun": 2073,
      "dream": 2074,
      "silly": 2075,
      "adult": 2076,
      "lo": 2077,
      "pub": 2078,
      "##eth": 2079,
      "present": 2080,
      "problems": 2081,
      "free": 2082,
      "words": 2083,
      "##iction": 2084,
      "detail": 2085,
      "pleas": 2086,
      "##iel": 2087,
      "##rack": 2088,
      "tells": 2089,
      "##ises": 2090,
      "entertainment": 2091,
      "gang": 2092,
      "appre": 2093,
      "die": 2094,
      "##ike": 2095,
      "team": 2096,
      "ham": 2097,
      "forg": 2098,
      "sequence": 2099,
      "den": 2100,
      "sexual": 2101,
      "hands": 2102,
      "lady": 2103,
      "dull": 2104,
      "##ital": 2105,
      "##ished": 2106,
      "beyond": 2107,
      "mater": 2108,
      "attack": 2109,
      "norm": 2110,
      "george": 2111,
      "##iod": 2112,
      "grand": 2113,
      "##ats": 2114,
      "##lly": 2115,
      "##ili": 2116,
      "oscar": 2117,
      "##ox": 2118,
      "upon": 2119,
      "##usion": 2120,
      "unlike": 2121,
      "fell": 2122,
      "question": 2123,
      "whether": 2124,
      "suck": 2125,
      "theat": 2126,
      "moving": 2127,
      "predictable": 2128,
      "##ental": 2129,
      "aspect": 2130,
      "appreci": 2131,
      "hate": 2132,
      "prog": 2133,
      "twist": 2134,
      "sets": 2135,
      "york": 2136,
      "falls": 2137,
      "mystery": 2138,
      "##rop": 2139,
      "cover": 2140,
      "##orable": 2141,
      "##ury": 2142,
      "fire": 2143,
      "##ky": 2144,
      "mer": 2145,
      "period": 2146,
      "german": 2147,
      "material": 2148,
      "van": 2149,
      "enjoyable": 2150,
      "##how": 2151,
      "needs": 2152,
      "appears": 2153,
      "hun": 2154,
      "giving": 2155,
      "los": 2156,
      "lee": 2157,
      "##ots": 2158,
      "match": 2159,
      "##oul": 2160,
      "adapt": 2161,
      "previous": 2162,
      "feature": 2163,
      "stri": 2164,
      "##asy": 2165,
      "within": 2166,
      "##ension": 2167,
      "french": 2168,
      "actual": 2169,
      "##gy": 2170,
      "comb": 2171,
      "ultim": 2172,
      "message": 2173,
      "##den": 2174,
      "theater": 2175,
      "##oof": 2176,
      "trou": 2177,
      "path": 2178,
      "animation": 2179,
      "wind": 2180,
      "tar": 2181,
      "sister": 2182,
      "##asc": 2183,
      "joe": 2184,
      "prin": 2185,
      "##arely": 2186,
      "insp": 2187,
      "bunch": 2188,
      "above": 2189,
      "sequel": 2190,
      "clear": 2191,
      "pac": 2192,
      "##path": 2193,
      "victim": 2194,
      "theme": 2195,
      "wait": 2196,
      "##wise": 2197,
      "nearly": 2198,
      "surv": 2199,
      "haven": 2200,
      "points": 2201,
      "ways": 2202,
      "easy": 2203,
      "herself": 2204,
      "flaw": 2205,
      "doubt": 2206,
      "est": 2207,
      "feels": 2208,
      "setting": 2209,
      "superb": 2210,
      "ca": 2211,
      "release": 2212,
      "aff": 2213,
      "hall": 2214,
      "truth": 2215,
      "storyline": 2216,
      "slight": 2217,
      "hom": 2218,
      "lots": 2219,
      "named": 2220,
      "surprised": 2221,
      "##nding": 2222,
      "using": 2223,
      "visual": 2224,
      "fi": 2225,
      "##ires": 2226,
      "fantastic": 2227,
      "##ices": 2228,
      "clim": 2229,
      "third": 2230,
      "advent": 2231,
      "begins": 2232,
      "working": 2233,
      "ine": 2234,
      "##ength": 2235,
      "personal": 2236,
      "##dden": 2237,
      "roll": 2238,
      "minute": 2239,
      "famous": 2240,
      "jim": 2241,
      "##essed": 2242,
      "western": 2243,
      "tale": 2244,
      "##ctor": 2245,
      "sudden": 2246,
      "weird": 2247,
      "viewers": 2248,
      "buy": 2249,
      "##sw": 2250,
      "##ana": 2251,
      "##icult": 2252,
      "elements": 2253,
      "general": 2254,
      "large": 2255,
      "reve": 2256,
      "disney": 2257,
      "accept": 2258,
      "##track": 2259,
      "##ps": 2260,
      "dumb": 2261,
      "hear": 2262,
      "deb": 2263,
      "comments": 2264,
      "drug": 2265,
      "##aught": 2266,
      "soundtrack": 2267,
      "typical": 2268,
      "##imin": 2269,
      "showing": 2270,
      "editing": 2271,
      "lat": 2272,
      "difficult": 2273,
      "wall": 2274,
      "tried": 2275,
      "sugg": 2276,
      "obs": 2277,
      "##res": 2278,
      "express": 2279,
      "peter": 2280,
      "sorry": 2281,
      "suggest": 2282,
      "pal": 2283,
      "auth": 2284,
      "wild": 2285,
      "flash": 2286,
      "aver": 2287,
      "##light": 2288,
      "##uses": 2289,
      "filmed": 2290,
      "contain": 2291,
      "figure": 2292,
      "catch": 2293,
      "##iters": 2294,
      "decided": 2295,
      "parents": 2296,
      "means": 2297,
      "crime": 2298,
      "front": 2299,
      "fly": 2300,
      "mix": 2301,
      "vamp": 2302,
      "realistic": 2303,
      "compan": 2304,
      "cal": 2305,
      "##omin": 2306,
      "oper": 2307,
      "somehow": 2308,
      "park": 2309,
      "##ope": 2310,
      "exec": 2311,
      "stage": 2312,
      "profess": 2313,
      "gone": 2314,
      "water": 2315,
      "lame": 2316,
      "project": 2317,
      "##ening": 2318,
      "##lin": 2319,
      "##onic": 2320,
      "kept": 2321,
      "viewing": 2322,
      "leads": 2323,
      "utter": 2324,
      "soc": 2325,
      "dance": 2326,
      "street": 2327,
      "business": 2328,
      "une": 2329,
      "greatest": 2330,
      "zombie": 2331,
      "195": 2332,
      "##na": 2333,
      "##alian": 2334,
      "atmosphere": 2335,
      "brought": 2336,
      "note": 2337,
      "meaning": 2338,
      "beat": 2339,
      "##opp": 2340,
      "imagine": 2341,
      "##omp": 2342,
      "whate": 2343,
      "introdu": 2344,
      "pure": 2345,
      "##ceed": 2346,
      "whatever": 2347,
      "shame": 2348,
      "move": 2349,
      "ghost": 2350,
      "lim": 2351,
      "liter": 2352,
      "male": 2353,
      "particular": 2354,
      "band": 2355,
      "iss": 2356,
      "heav": 2357,
      "america": 2358,
      "sequences": 2359,
      "conne": 2360,
      "##ially": 2361,
      "average": 2362,
      "sens": 2363,
      "revol": 2364,
      "indeed": 2365,
      "background": 2366,
      "baby": 2367,
      "eventually": 2368,
      "spirit": 2369,
      "eur": 2370,
      "reviews": 2371,
      "hy": 2372,
      "jump": 2373,
      "japanese": 2374,
      "surprise": 2375,
      "##db": 2376,
      "poorly": 2377,
      "okay": 2378,
      "fu": 2379,
      "##back": 2380,
      "nature": 2381,
      "premise": 2382,
      "believable": 2383,
      "##oose": 2384,
      "##ively": 2385,
      "193": 2386,
      "possibly": 2387,
      "sleep": 2388,
      "wit": 2389,
      "strugg": 2390,
      "girlf": 2391,
      "chees": 2392,
      "expected": 2393,
      "sweet": 2394,
      "earli": 2395,
      "jane": 2396,
      "tast": 2397,
      "teach": 2398,
      "imdb": 2399,
      "phil": 2400,
      "##bers": 2401,
      "public": 2402,
      "##head": 2403,
      "ver": 2404,
      "starr": 2405,
      "forward": 2406,
      "##ously": 2407,
      "masterp": 2408,
      "became": 2409,
      "thank": 2410,
      "appeal": 2411,
      "##ored": 2412,
      "screenplay": 2413,
      "killing": 2414,
      "commun": 2415,
      "romance": 2416,
      "further": 2417,
      "hur": 2418,
      "train": 2419,
      "clos": 2420,
      "terrif": 2421,
      "stick": 2422,
      "costum": 2423,
      "scott": 2424,
      "rand": 2425,
      "##uted": 2426,
      "ball": 2427,
      "##com": 2428,
      "##mas": 2429,
      "reading": 2430,
      "girlfriend": 2431,
      "mach": 2432,
      "jul": 2433,
      "##zz": 2434,
      "needed": 2435,
      "leaves": 2436,
      "lang": 2437,
      "##right": 2438,
      "ach": 2439,
      "conv": 2440,
      "fasc": 2441,
      "##iences": 2442,
      "villain": 2443,
      "jour": 2444,
      "trad": 2445,
      "mass": 2446,
      "meets": 2447,
      "directors": 2448,
      "##bert": 2449,
      "society": 2450,
      "mo": 2451,
      "sick": 2452,
      "enc": 2453,
      "unless": 2454,
      "credits": 2455,
      "##ogn": 2456,
      "write": 2457,
      "bored": 2458,
      "prison": 2459,
      "otherwise": 2460,
      "battle": 2461,
      "fran": 2462,
      "uns": 2463,
      "situation": 2464,
      "meant": 2465,
      "resp": 2466,
      "dramatic": 2467,
      "luck": 2468,
      "refer": 2469,
      "bother": 2470,
      "da": 2471,
      "##gs": 2472,
      "##key": 2473,
      "design": 2474,
      "##ges": 2475,
      "##hood": 2476,
      "monster": 2477,
      "memorable": 2478,
      "emotion": 2479,
      "unique": 2480,
      "burn": 2481,
      "##ages": 2482,
      "badly": 2483,
      "flat": 2484,
      "earlier": 2485,
      "##emy": 2486,
      "writers": 2487,
      "clever": 2488,
      "##overs": 2489,
      "forced": 2490,
      "emotional": 2491,
      "acted": 2492,
      "hair": 2493,
      "##inc": 2494,
      "inte": 2495,
      "laughs": 2496,
      "crazy": 2497,
      "pu": 2498,
      "social": 2499,
      "older": 2500,
      "##ai": 2501,
      "##bs": 2502,
      "beauty": 2503,
      "disturb": 2504,
      "total": 2505,
      "mir": 2506,
      "##rap": 2507,
      "realize": 2508,
      "fantasy": 2509,
      "30": 2510,
      "##cers": 2511,
      "interested": 2512,
      "##roy": 2513,
      "##ding": 2514,
      "fred": 2515,
      "footage": 2516,
      "stere": 2517,
      "##pend": 2518,
      "trash": 2519,
      "concept": 2520,
      "rad": 2521,
      "und": 2522,
      "impr": 2523,
      "popular": 2524,
      "gay": 2525,
      "sal": 2526,
      "##rit": 2527,
      "allow": 2528,
      "ale": 2529,
      "##por": 2530,
      "whom": 2531,
      "plus": 2532,
      "sounds": 2533,
      "##lie": 2534,
      "##oph": 2535,
      "directing": 2536,
      "##isf": 2537,
      "development": 2538,
      "cartoon": 2539,
      "ble": 2540,
      "##uct": 2541,
      "keeps": 2542,
      "features": 2543,
      "##rupt": 2544,
      "nud": 2545,
      "cond": 2546,
      "##fer": 2547,
      "##uc": 2548,
      "colle": 2549,
      "repr": 2550,
      "doctor": 2551,
      "196": 2552,
      "quickly": 2553,
      "creepy": 2554,
      "towards": 2555,
      "##aking": 2556,
      "##aked": 2557,
      "perfectly": 2558,
      "histor": 2559,
      "brain": 2560,
      "green": 2561,
      "mac": 2562,
      "worked": 2563,
      "cheesy": 2564,
      "##row": 2565,
      "brings": 2566,
      "##cessary": 2567,
      "plenty": 2568,
      "imm": 2569,
      "rate": 2570,
      "cir": 2571,
      "##view": 2572,
      "occas": 2573,
      "##ula": 2574,
      "christmas": 2575,
      "incredibly": 2576,
      "answ": 2577,
      "collect": 2578,
      "innoc": 2579,
      "dad": 2580,
      "les": 2581,
      "##ara": 2582,
      "repe": 2583,
      "##ived": 2584,
      "joke": 2585,
      "kick": 2586,
      "##ius": 2587,
      "casting": 2588,
      "ign": 2589,
      "leading": 2590,
      "discover": 2591,
      "##iliar": 2592,
      "##gest": 2593,
      "##ites": 2594,
      "sun": 2595,
      "admit": 2596,
      "bed": 2597,
      "desper": 2598,
      "powerful": 2599,
      "potential": 2600,
      "era": 2601,
      "boys": 2602,
      "william": 2603,
      "##ague": 2604,
      "ess": 2605,
      "copy": 2606,
      "fest": 2607,
      "##real": 2608,
      "##ches": 2609,
      "telling": 2610,
      "stereot": 2611,
      "cas": 2612,
      "appro": 2613,
      "hardly": 2614,
      "masterpiece": 2615,
      "##ero": 2616,
      "track": 2617,
      "create": 2618,
      "mary": 2619,
      "##olf": 2620,
      "political": 2621,
      "##str": 2622,
      "recogn": 2623,
      "various": 2624,
      "attract": 2625,
      "fighting": 2626,
      "purp": 2627,
      "agree": 2628,
      "invest": 2629,
      "fails": 2630,
      "langu": 2631,
      "80": 2632,
      "neg": 2633,
      "cru": 2634,
      "##ken": 2635,
      "scient": 2636,
      "##inger": 2637,
      "portrayed": 2638,
      "log": 2639,
      "plain": 2640,
      "inside": 2641,
      "cold": 2642,
      "pie": 2643,
      "island": 2644,
      "extra": 2645,
      "color": 2646,
      "bull": 2647,
      "outside": 2648,
      "nudity": 2649,
      "##venge": 2650,
      "##let": 2651,
      "reasons": 2652,
      "claim": 2653,
      "phys": 2654,
      "ideas": 2655,
      "crew": 2656,
      "relig": 2657,
      "missing": 2658,
      "ce": 2659,
      "stat": 2660,
      "fear": 2661,
      "amount": 2662,
      "##ips": 2663,
      "broad": 2664,
      "positive": 2665,
      "mas": 2666,
      "deserves": 2667,
      "married": 2668,
      "##more": 2669,
      "doll": 2670,
      "trail": 2671,
      "cry": 2672,
      "##ivid": 2673,
      "expecting": 2674,
      "fairly": 2675,
      "##bor": 2676,
      "##lect": 2677,
      "talented": 2678,
      "15": 2679,
      "ur": 2680,
      "sympath": 2681,
      "embarr": 2682,
      "react": 2683,
      "##ology": 2684,
      "cute": 2685,
      "remake": 2686,
      "attempts": 2687,
      "spoilers": 2688,
      "manages": 2689,
      "##ills": 2690,
      "194": 2691,
      "fat": 2692,
      "ident": 2693,
      "embarrass": 2694,
      "sand": 2695,
      "scar": 2696,
      "recently": 2697,
      "##itty": 2698,
      "##belie": 2699,
      "achie": 2700,
      "din": 2701,
      "##ene": 2702,
      "offic": 2703,
      "##berg": 2704,
      "danger": 2705,
      "fit": 2706,
      "##wart": 2707,
      "sadly": 2708,
      "wrote": 2709,
      "##ishing": 2710,
      "subtle": 2711,
      "ri": 2712,
      "mood": 2713,
      "porn": 2714,
      "tur": 2715,
      "myster": 2716,
      "familiar": 2717,
      "hol": 2718,
      "remark": 2719,
      "depth": 2720,
      "soul": 2721,
      "##aces": 2722,
      "##asher": 2723,
      "destroy": 2724,
      "reveal": 2725,
      "biz": 2726,
      "rap": 2727,
      "office": 2728,
      "##arre": 2729,
      "chem": 2730,
      "arr": 2731,
      "lege": 2732,
      "##itted": 2733,
      "following": 2734,
      "detect": 2735,
      "filmmakers": 2736,
      "unbelie": 2737,
      "accident": 2738,
      "missed": 2739,
      "##istry": 2740,
      "explain": 2741,
      "mentioned": 2742,
      "delight": 2743,
      "requ": 2744,
      "incredible": 2745,
      "kar": 2746,
      "ram": 2747,
      "cross": 2748,
      "record": 2749,
      "medi": 2750,
      "common": 2751,
      "reach": 2752,
      "wasted": 2753,
      "lab": 2754,
      "brief": 2755,
      "funn": 2756,
      "control": 2757,
      "90": 2758,
      "##off": 2759,
      "angel": 2760,
      "members": 2761,
      "brothers": 2762,
      "escape": 2763,
      "europe": 2764,
      "intri": 2765,
      "ended": 2766,
      "caught": 2767,
      "##gar": 2768,
      "revenge": 2769,
      "produced": 2770,
      "ber": 2771,
      "amb": 2772,
      "pace": 2773,
      "##friend": 2774,
      "##go": 2775,
      "draw": 2776,
      "fash": 2777,
      "##lu": 2778,
      "##alth": 2779,
      "scream": 2780,
      "approach": 2781,
      "##ders": 2782,
      "idi": 2783,
      "filled": 2784,
      "immed": 2785,
      "party": 2786,
      "chann": 2787,
      "science": 2788,
      "##agon": 2789,
      "complex": 2790,
      "waiting": 2791,
      "victor": 2792,
      "cand": 2793,
      "credit": 2794,
      "##lusion": 2795,
      "decides": 2796,
      "solid": 2797,
      "##oe": 2798,
      "considering": 2799,
      "bes": 2800,
      "tension": 2801,
      "##ient": 2802,
      "immedi": 2803,
      "rece": 2804,
      "haun": 2805,
      "comput": 2806,
      "pointless": 2807,
      "created": 2808,
      "mere": 2809,
      "##izing": 2810,
      "slightly": 2811,
      "crimin": 2812,
      "uses": 2813,
      "slasher": 2814,
      "sees": 2815,
      "intern": 2816,
      "travel": 2817,
      "regard": 2818,
      "convincing": 2819,
      "compared": 2820,
      "imposs": 2821,
      "former": 2822,
      "suddenly": 2823,
      "breat": 2824,
      "cause": 2825,
      "tough": 2826,
      "##ey": 2827,
      "neither": 2828,
      "spent": 2829,
      "numb": 2830,
      "force": 2831,
      "magic": 2832,
      "anti": 2833,
      "intelligent": 2834,
      "road": 2835,
      "state": 2836,
      "##erv": 2837,
      "##rage": 2838,
      "glad": 2839,
      "entirely": 2840,
      "forgot": 2841,
      "six": 2842,
      "##ral": 2843,
      "##ades": 2844,
      "dancing": 2845,
      "language": 2846,
      "gover": 2847,
      "##ned": 2848,
      "##eem": 2849,
      "italian": 2850,
      "moves": 2851,
      "choice": 2852,
      "kills": 2853,
      "##acy": 2854,
      "wer": 2855,
      "search": 2856,
      "##oop": 2857,
      "store": 2858,
      "laughing": 2859,
      "century": 2860,
      "trouble": 2861,
      "##work": 2862,
      "##ibility": 2863,
      "##esome": 2864,
      "basic": 2865,
      "value": 2866,
      "bizarre": 2867,
      "manner": 2868,
      "successful": 2869,
      "tony": 2870,
      "witch": 2871,
      "##itation": 2872,
      "violent": 2873,
      "satisf": 2874,
      "heavy": 2875,
      "tort": 2876,
      "##par": 2877,
      "week": 2878,
      "ultimately": 2879,
      "dim": 2880,
      "singing": 2881,
      "exciting": 2882,
      "harr": 2883,
      "##urs": 2884,
      "suspect": 2885,
      "test": 2886,
      "##gic": 2887,
      "zombies": 2888,
      "ground": 2889,
      "news": 2890,
      "studio": 2891,
      "natural": 2892,
      "##orm": 2893,
      "suit": 2894,
      "##ries": 2895,
      "key": 2896,
      "smith": 2897,
      "animated": 2898,
      "company": 2899,
      "stereotyp": 2900,
      "ran": 2901,
      "west": 2902,
      "arri": 2903,
      "faith": 2904,
      "genu": 2905,
      "biggest": 2906,
      "accent": 2907,
      "fol": 2908,
      "trip": 2909,
      "continu": 2910,
      "mal": 2911,
      "##lict": 2912,
      "died": 2913,
      "terror": 2914,
      "runs": 2915,
      "pack": 2916,
      "##uit": 2917,
      "##uce": 2918,
      "effective": 2919,
      "ted": 2920,
      "##isingly": 2921,
      "recent": 2922,
      "##iers": 2923,
      "spend": 2924,
      "adventure": 2925,
      "amusing": 2926,
      "focus": 2927,
      "fashion": 2928,
      "bomb": 2929,
      "fort": 2930,
      "##iment": 2931,
      "compe": 2932,
      "##aging": 2933,
      "portrayal": 2934,
      "critic": 2935,
      "hid": 2936,
      "rated": 2937,
      "##wr": 2938,
      "brut": 2939,
      "planet": 2940,
      "appreciate": 2941,
      "genuine": 2942,
      "shar": 2943,
      "concern": 2944,
      "milit": 2945,
      "books": 2946,
      "repres": 2947,
      "bond": 2948,
      "lad": 2949,
      "ii": 2950,
      "ray": 2951,
      "south": 2952,
      "alien": 2953,
      "younger": 2954,
      "##inary": 2955,
      "##pped": 2956,
      "awesome": 2957,
      "drag": 2958,
      "##rew": 2959,
      "stan": 2960,
      "fascin": 2961,
      "tone": 2962,
      "##come": 2963,
      "##ilt": 2964,
      "impressive": 2965,
      "opportun": 2966,
      "alex": 2967,
      "govern": 2968,
      "squ": 2969,
      "##la": 2970,
      "##ze": 2971,
      "follows": 2972,
      "gri": 2973,
      "##ened": 2974,
      "depress": 2975,
      "explo": 2976,
      "spot": 2977,
      "college": 2978,
      "legend": 2979,
      "50": 2980,
      "wal": 2981,
      "seg": 2982,
      "afric": 2983,
      "culture": 2984,
      "impossible": 2985,
      "##iced": 2986,
      "carry": 2987,
      "pract": 2988,
      "fool": 2989,
      "hen": 2990,
      "smo": 2991,
      "product": 2992,
      "magn": 2993,
      "##oved": 2994,
      "##standing": 2995,
      "producers": 2996,
      "depict": 2997,
      "weren": 2998,
      "dir": 2999,
      "thanks": 3000,
      "makers": 3001,
      "conclusion": 3002,
      "chemistry": 3003,
      "tor": 3004,
      "##ring": 3005,
      "##une": 3006,
      "showed": 3007,
      "recommended": 3008,
      "##bage": 3009,
      "amate": 3010,
      "##ribly": 3011,
      "loud": 3012,
      "taste": 3013,
      "pers": 3014,
      "exception": 3015,
      "situations": 3016,
      "starring": 3017,
      "que": 3018,
      "rain": 3019,
      "##rated": 3020,
      "compet": 3021,
      "favour": 3022,
      "door": 3023,
      "disturbing": 3024,
      "ast": 3025,
      "hang": 3026,
      "leg": 3027,
      "flo": 3028,
      "steve": 3029,
      "considered": 3030,
      "proper": 3031,
      "changed": 3032,
      "##ried": 3033,
      "somewhere": 3034,
      "##ager": 3035,
      "minor": 3036,
      "failed": 3037,
      "purpose": 3038,
      "barely": 3039,
      "##ron": 3040,
      "##ette": 3041,
      "##aced": 3042,
      "decide": 3043,
      "million": 3044,
      "boss": 3045,
      "repl": 3046,
      "pictures": 3047,
      "leaving": 3048,
      "author": 3049,
      "vo": 3050,
      "##ensive": 3051,
      "questions": 3052,
      "shooting": 3053,
      "lif": 3054,
      "disg": 3055,
      "longer": 3056,
      "##ppy": 3057,
      "equ": 3058,
      "fiction": 3059,
      "100": 3060,
      "audiences": 3061,
      "bott": 3062,
      "pan": 3063,
      "fake": 3064,
      "assum": 3065,
      "normal": 3066,
      "fox": 3067,
      "aside": 3068,
      "neigh": 3069,
      "nightm": 3070,
      "dick": 3071,
      "russ": 3072,
      "##iny": 3073,
      "addition": 3074,
      "computer": 3075,
      "cow": 3076,
      "tem": 3077,
      "##xic": 3078,
      "##bl": 3079,
      "##ode": 3080,
      "ups": 3081,
      "##ounter": 3082,
      "stewart": 3083,
      "images": 3084,
      "wise": 3085,
      "##ha": 3086,
      "##sters": 3087,
      "wee": 3088,
      "charming": 3089,
      "##ological": 3090,
      "mi": 3091,
      "##min": 3092,
      "##ham": 3093,
      "club": 3094,
      "harry": 3095,
      "pathetic": 3096,
      "lond": 3097,
      "##ee": 3098,
      "throw": 3099,
      "grant": 3100,
      "award": 3101,
      "##ization": 3102,
      "generally": 3103,
      "stunning": 3104,
      "literally": 3105,
      "##fort": 3106,
      "##de": 3107,
      "##att": 3108,
      "##arily": 3109,
      "values": 3110,
      "journey": 3111,
      "proc": 3112,
      "indian": 3113,
      "likes": 3114,
      "surprisingly": 3115,
      "redeem": 3116,
      "alive": 3117,
      "involving": 3118,
      "jeff": 3119,
      "london": 3120,
      "##ka": 3121,
      "noir": 3122,
      "##izes": 3123,
      "humour": 3124,
      "affect": 3125,
      "channel": 3126,
      "yeah": 3127,
      "grade": 3128,
      "cliche": 3129,
      "mysterious": 3130,
      "immediately": 3131,
      "military": 3132,
      "sar": 3133,
      "length": 3134,
      "motion": 3135,
      "garbage": 3136,
      "unex": 3137,
      "detective": 3138,
      "finish": 3139,
      "bought": 3140,
      "fresh": 3141,
      "drive": 3142,
      "random": 3143,
      "chur": 3144,
      "christian": 3145,
      "amateur": 3146,
      "mouth": 3147,
      "smart": 3148,
      "impression": 3149,
      "hey": 3150,
      "##ille": 3151,
      "ability": 3152,
      "##aged": 3153,
      "honestly": 3154,
      "##boy": 3155,
      "##urd": 3156,
      "army": 3157,
      "##aper": 3158,
      "serv": 3159,
      "genius": 3160,
      "##ifully": 3161,
      "standard": 3162,
      "barb": 3163,
      "adaptation": 3164,
      "utterly": 3165,
      "investig": 3166,
      "suc": 3167,
      "nobody": 3168,
      "indust": 3169,
      "spect": 3170,
      "##aa": 3171,
      "##lla": 3172,
      "##sey": 3173,
      "bob": 3174,
      "mult": 3175,
      "sitting": 3176,
      "notice": 3177,
      "demon": 3178,
      "appearance": 3179,
      "tradition": 3180,
      "rare": 3181,
      "inform": 3182,
      "blond": 3183,
      "serial": 3184,
      "insult": 3185,
      "succeed": 3186,
      "11": 3187,
      "bi": 3188,
      "chase": 3189,
      "##opher": 3190,
      "##anna": 3191,
      "climax": 3192,
      "bottom": 3193,
      "70": 3194,
      "knowing": 3195,
      "##while": 3196,
      "rog": 3197,
      "##to": 3198,
      "##iance": 3199,
      "personally": 3200,
      "graph": 3201,
      "naked": 3202,
      "sexy": 3203,
      "jes": 3204,
      "##ging": 3205,
      "chris": 3206,
      "wow": 3207,
      "thin": 3208,
      "nowhere": 3209,
      "absurd": 3210,
      "gem": 3211,
      "##ining": 3212,
      "blue": 3213,
      "##ified": 3214,
      "edge": 3215,
      "der": 3216,
      "paris": 3217,
      "##room": 3218,
      "threat": 3219,
      "added": 3220,
      "silent": 3221,
      "pil": 3222,
      "##rel": 3223,
      "##idence": 3224,
      "charlie": 3225,
      "remains": 3226,
      "comedies": 3227,
      "walking": 3228,
      "gag": 3229,
      "##vey": 3230,
      "twists": 3231,
      "thinks": 3232,
      "producer": 3233,
      "curr": 3234,
      "date": 3235,
      "##die": 3236,
      "##ops": 3237,
      "beautifully": 3238,
      "dreams": 3239,
      "18": 3240,
      "##ena": 3241,
      "sell": 3242,
      "charm": 3243,
      "##lessly": 3244,
      "touching": 3245,
      "terrific": 3246,
      "unbelievable": 3247,
      "mild": 3248,
      "batman": 3249,
      "witness": 3250,
      "eq": 3251,
      "##mon": 3252,
      "##wor": 3253,
      "terms": 3254,
      "boyfriend": 3255,
      "##sequ": 3256,
      "arch": 3257,
      "breath": 3258,
      "equally": 3259,
      "ring": 3260,
      "##erous": 3261,
      "init": 3262,
      "##ases": 3263,
      "fore": 3264,
      "ash": 3265,
      "chall": 3266,
      "##appe": 3267,
      "interview": 3268,
      "surr": 3269,
      "compar": 3270,
      "accur": 3271,
      "government": 3272,
      "##cast": 3273,
      "##ores": 3274,
      "##stem": 3275,
      "kelly": 3276,
      "drawn": 3277,
      "##rey": 3278,
      "bal": 3279,
      "##ped": 3280,
      "sher": 3281,
      "spl": 3282,
      "##cif": 3283,
      "##rick": 3284,
      "##ify": 3285,
      "month": 3286,
      "steph": 3287,
      "connect": 3288,
      "church": 3289,
      "boo": 3290,
      "fully": 3291,
      "ju": 3292,
      "joy": 3293,
      "ride": 3294,
      "##ios": 3295,
      "mistake": 3296,
      "base": 3297,
      "cg": 3298,
      "defe": 3299,
      "drunk": 3300,
      "conflict": 3301,
      "managed": 3302,
      "narrative": 3303,
      "##cious": 3304,
      "##aly": 3305,
      "lovely": 3306,
      "laughable": 3307,
      "element": 3308,
      "system": 3309,
      "pieces": 3310,
      "intrigu": 3311,
      "##mark": 3312,
      "##icious": 3313,
      "##unt": 3314,
      "##anda": 3315,
      "themes": 3316,
      "vampire": 3317,
      "##vent": 3318,
      "##aint": 3319,
      "likely": 3320,
      "block": 3321,
      "passion": 3322,
      "soldiers": 3323,
      "##uster": 3324,
      "disappointing": 3325,
      "cele": 3326,
      "rac": 3327,
      "##gen": 3328,
      "chick": 3329,
      "##aine": 3330,
      "##ropri": 3331,
      "##men": 3332,
      "##itions": 3333,
      "excuse": 3334,
      "avail": 3335,
      "issues": 3336,
      "##aven": 3337,
      "thus": 3338,
      "##ica": 3339,
      "##iring": 3340,
      "outstanding": 3341,
      "justice": 3342,
      "painful": 3343,
      "spoiler": 3344,
      "##gl": 3345,
      "surely": 3346,
      "marriage": 3347,
      "affair": 3348,
      "flashback": 3349,
      "costumes": 3350,
      "innocent": 3351,
      "aut": 3352,
      "bon": 3353,
      "host": 3354,
      "jones": 3355,
      "na": 3356,
      "moral": 3357,
      "christopher": 3358,
      "constantly": 3359,
      "##vert": 3360,
      "arg": 3361,
      "presented": 3362,
      "central": 3363,
      "respons": 3364,
      "trick": 3365,
      "lord": 3366,
      "prep": 3367,
      "individ": 3368,
      "cinematic": 3369,
      "##uff": 3370,
      "##isc": 3371,
      "everybody": 3372,
      "slowly": 3373,
      "shall": 3374,
      "places": 3375,
      "influ": 3376,
      "contains": 3377,
      "jew": 3378,
      "##oes": 3379,
      "charles": 3380,
      "offer": 3381,
      "presence": 3382,
      "animals": 3383,
      "details": 3384,
      "medioc": 3385,
      "besides": 3386,
      "##vir": 3387,
      "thrown": 3388,
      "jean": 3389,
      "historical": 3390,
      "moon": 3391,
      "##ched": 3392,
      "loves": 3393,
      "woods": 3394,
      "round": 3395,
      "allen": 3396,
      "trust": 3397,
      "scenery": 3398,
      "steal": 3399,
      "hoping": 3400,
      "escap": 3401,
      "photography": 3402,
      "program": 3403,
      "henry": 3404,
      "surf": 3405,
      "buff": 3406,
      "independ": 3407,
      "##oughly": 3408,
      "disappointment": 3409,
      "speaking": 3410,
      "nast": 3411,
      "page": 3412,
      "##ole": 3413,
      "expectations": 3414,
      "developed": 3415,
      "arth": 3416,
      "numbers": 3417,
      "pen": 3418,
      "rip": 3419,
      "sight": 3420,
      "thor": 3421,
      "soft": 3422,
      "##ability": 3423,
      "div": 3424,
      "buck": 3425,
      "double": 3426,
      "roy": 3427,
      "##imp": 3428,
      "impact": 3429,
      "commer": 3430,
      "ahead": 3431,
      "fright": 3432,
      "sport": 3433,
      "univers": 3434,
      "40": 3435,
      "eight": 3436,
      "names": 3437,
      "##verse": 3438,
      "behav": 3439,
      "festival": 3440,
      "arm": 3441,
      "suppose": 3442,
      "stands": 3443,
      "critics": 3444,
      "hotel": 3445,
      "describ": 3446,
      "aspects": 3447,
      "opera": 3448,
      "loose": 3449,
      "##mm": 3450,
      "##arsh": 3451,
      "lover": 3452,
      "discuss": 3453,
      "fascinating": 3454,
      "dies": 3455,
      "anth": 3456,
      "##irth": 3457,
      "impl": 3458,
      "##kn": 3459,
      "##itude": 3460,
      "heaven": 3461,
      "crow": 3462,
      "feelings": 3463,
      "subst": 3464,
      "building": 3465,
      "eat": 3466,
      "##ki": 3467,
      "forever": 3468,
      "held": 3469,
      "acts": 3470,
      "ener": 3471,
      "intense": 3472,
      "clean": 3473,
      "kr": 3474,
      "bruce": 3475,
      "filming": 3476,
      "mainly": 3477,
      "opportunity": 3478,
      "ug": 3479,
      "##icated": 3480,
      "ship": 3481,
      "student": 3482,
      "surround": 3483,
      "prim": 3484,
      "cloth": 3485,
      "##ford": 3486,
      "hosp": 3487,
      "##uous": 3488,
      "##eter": 3489,
      "drink": 3490,
      "individual": 3491,
      "zero": 3492,
      "##oud": 3493,
      "##icide": 3494,
      "resem": 3495,
      "sky": 3496,
      "emotions": 3497,
      "hurt": 3498,
      "gorge": 3499,
      "ros": 3500,
      "traged": 3501,
      "intended": 3502,
      "available": 3503,
      "12": 3504,
      "san": 3505,
      "twice": 3506,
      "object": 3507,
      "correct": 3508,
      "celebr": 3509,
      "sant": 3510,
      "shakes": 3511,
      "span": 3512,
      "uncle": 3513,
      "changes": 3514,
      "born": 3515,
      "protagon": 3516,
      "compelling": 3517,
      "cell": 3518,
      "hat": 3519,
      "##af": 3520,
      "fellow": 3521,
      "##inct": 3522,
      "happening": 3523,
      "likable": 3524,
      "falling": 3525,
      "nick": 3526,
      "pun": 3527,
      "tired": 3528,
      "ww": 3529,
      "lived": 3530,
      "mexic": 3531,
      "virt": 3532,
      "##icip": 3533,
      "##esty": 3534,
      "canad": 3535,
      "##ploy": 3536,
      "puts": 3537,
      "elect": 3538,
      "summer": 3539,
      "13": 3540,
      "dubb": 3541,
      "field": 3542,
      "wid": 3543,
      "shad": 3544,
      "grace": 3545,
      "jerry": 3546,
      "ban": 3547,
      "hide": 3548,
      "ment": 3549,
      "##ini": 3550,
      "##ura": 3551,
      "##andon": 3552,
      "image": 3553,
      "giant": 3554,
      "confused": 3555,
      "winning": 3556,
      "qual": 3557,
      "hasn": 3558,
      "dress": 3559,
      "remain": 3560,
      "artist": 3561,
      "victims": 3562,
      "trailer": 3563,
      "arthur": 3564,
      "billy": 3565,
      "led": 3566,
      "##edy": 3567,
      "mont": 3568,
      "difference": 3569,
      "include": 3570,
      "melod": 3571,
      "adults": 3572,
      "disgust": 3573,
      "##olic": 3574,
      "dread": 3575,
      "martin": 3576,
      "net": 3577,
      "nons": 3578,
      "steven": 3579,
      "devil": 3580,
      "commercial": 3581,
      "followed": 3582,
      "wed": 3583,
      "##ok": 3584,
      "##entially": 3585,
      "priv": 3586,
      "civ": 3587,
      "content": 3588,
      "appeared": 3589,
      "jon": 3590,
      "wide": 3591,
      "##ta": 3592,
      "share": 3593,
      "##ribe": 3594,
      "highlight": 3595,
      "putting": 3596,
      "##ruct": 3597,
      "race": 3598,
      "##abb": 3599,
      "actresses": 3600,
      "listen": 3601,
      "gorgeous": 3602,
      "##table": 3603,
      "##con": 3604,
      "##ession": 3605,
      "scr": 3606,
      "blind": 3607,
      "quiet": 3608,
      "laughed": 3609,
      "confusing": 3610,
      "negative": 3611,
      "holes": 3612,
      "lam": 3613,
      "stone": 3614,
      "scare": 3615,
      "##ift": 3616,
      "murders": 3617,
      "damn": 3618,
      "progress": 3619,
      "mediocre": 3620,
      "##orter": 3621,
      "##iday": 3622,
      "deter": 3623,
      "rape": 3624,
      "multi": 3625,
      "hospital": 3626,
      "unus": 3627,
      "americans": 3628,
      "lacks": 3629,
      "supposedly": 3630,
      "youth": 3631,
      "dig": 3632,
      "unne": 3633,
      "flaws": 3634,
      "ms": 3635,
      "##rid": 3636,
      "##ples": 3637,
      "latter": 3638,
      "##onna": 3639,
      "##ancy": 3640,
      "agent": 3641,
      "worthy": 3642,
      "creative": 3643,
      "occasion": 3644,
      "answer": 3645,
      "tragedy": 3646,
      "ol": 3647,
      "rout": 3648,
      "seven": 3649,
      "frustr": 3650,
      "overl": 3651,
      "students": 3652,
      "lighting": 3653,
      "##ushed": 3654,
      "relationships": 3655,
      "bland": 3656,
      "childhood": 3657,
      "helps": 3658,
      "dom": 3659,
      "##eman": 3660,
      "##text": 3661,
      "wondering": 3662,
      "proves": 3663,
      "circ": 3664,
      "funniest": 3665,
      "merely": 3666,
      "knock": 3667,
      "disaster": 3668,
      "finding": 3669,
      "paid": 3670,
      "oppos": 3671,
      "estab": 3672,
      "bank": 3673,
      "##een": 3674,
      "##ledge": 3675,
      "flicks": 3676,
      "flying": 3677,
      "queen": 3678,
      "birth": 3679,
      "brian": 3680,
      "sem": 3681,
      "fault": 3682,
      "imagination": 3683,
      "delivers": 3684,
      "professional": 3685,
      "ugly": 3686,
      "lyn": 3687,
      "##roc": 3688,
      "alan": 3689,
      "disappe": 3690,
      "standards": 3691,
      "irrit": 3692,
      "davis": 3693,
      "cliches": 3694,
      "folks": 3695,
      "##ech": 3696,
      "##ature": 3697,
      "##raid": 3698,
      "formula": 3699,
      "market": 3700,
      "forgotten": 3701,
      "lose": 3702,
      "bright": 3703,
      "resc": 3704,
      "tragic": 3705,
      "attractive": 3706,
      "##pping": 3707,
      "remote": 3708,
      "impressed": 3709,
      "soldier": 3710,
      "bak": 3711,
      "hook": 3712,
      "##aton": 3713,
      "austr": 3714,
      "lock": 3715,
      "##field": 3716,
      "display": 3717,
      "##azz": 3718,
      "stuck": 3719,
      "provides": 3720,
      "thoroughly": 3721,
      "shakespe": 3722,
      "civil": 3723,
      "##uts": 3724,
      "##ander": 3725,
      "seconds": 3726,
      "achieve": 3727,
      "mut": 3728,
      "##aries": 3729,
      "##unny": 3730,
      "##tend": 3731,
      "seemingly": 3732,
      "becoming": 3733,
      "games": 3734,
      "##lor": 3735,
      "##yc": 3736,
      "##ano": 3737,
      "adam": 3738,
      "consist": 3739,
      "williams": 3740,
      "reminded": 3741,
      "inspired": 3742,
      "spectac": 3743,
      "rose": 3744,
      "##ilities": 3745,
      "thats": 3746,
      "offers": 3747,
      "desert": 3748,
      "##ountain": 3749,
      "animal": 3750,
      "depart": 3751,
      "##ued": 3752,
      "##itor": 3753,
      "faces": 3754,
      "warning": 3755,
      "industry": 3756,
      "hack": 3757,
      "turning": 3758,
      "summ": 3759,
      "cab": 3760,
      "##ique": 3761,
      "##anced": 3762,
      "##read": 3763,
      "states": 3764,
      "afraid": 3765,
      "castle": 3766,
      "contem": 3767,
      "acad": 3768,
      "skin": 3769,
      "collection": 3770,
      "station": 3771,
      "subt": 3772,
      "robin": 3773,
      "hidden": 3774,
      "nasty": 3775,
      "stock": 3776,
      "crack": 3777,
      "melodram": 3778,
      "aim": 3779,
      "cook": 3780,
      "food": 3781,
      "rh": 3782,
      "convers": 3783,
      "##agger": 3784,
      "willing": 3785,
      "shouldn": 3786,
      "artistic": 3787,
      "##inese": 3788,
      "court": 3789,
      "creature": 3790,
      "jackson": 3791,
      "shocking": 3792,
      "symb": 3793,
      "protect": 3794,
      "##nia": 3795,
      "##aud": 3796,
      "carr": 3797,
      "##pected": 3798,
      "##well": 3799,
      "relative": 3800,
      "wooden": 3801,
      "apartment": 3802,
      "sir": 3803,
      "wars": 3804,
      "##ban": 3805,
      "conn": 3806,
      "personality": 3807,
      "location": 3808,
      "virgin": 3809,
      "scientist": 3810,
      "rented": 3811,
      "##zan": 3812,
      "chinese": 3813,
      "area": 3814,
      "unkn": 3815,
      "ready": 3816,
      "adds": 3817,
      "dirty": 3818,
      "ice": 3819,
      "tour": 3820,
      "brown": 3821,
      "weap": 3822,
      "horse": 3823,
      "vision": 3824,
      "syn": 3825,
      "angry": 3826,
      "##asure": 3827,
      "therefore": 3828,
      "werew": 3829,
      "prefer": 3830,
      "speed": 3831,
      "information": 3832,
      "punch": 3833,
      "##ef": 3834,
      "##yer": 3835,
      "brand": 3836,
      "horrif": 3837,
      "##azy": 3838,
      "accord": 3839,
      "lets": 3840,
      "explan": 3841,
      "filmmaker": 3842,
      "jason": 3843,
      "##aur": 3844,
      "##house": 3845,
      "##pret": 3846,
      "##entious": 3847,
      "chuck": 3848,
      "unreal": 3849,
      "anymore": 3850,
      "warm": 3851,
      "shakespeare": 3852,
      "card": 3853,
      "##aff": 3854,
      "##yl": 3855,
      "##hs": 3856,
      "##orious": 3857,
      "wel": 3858,
      "clothes": 3859,
      "east": 3860,
      "hill": 3861,
      "soph": 3862,
      "unexpected": 3863,
      "danny": 3864,
      "picked": 3865,
      "martial": 3866,
      "describe": 3867,
      "##board": 3868,
      "bath": 3869,
      "jenn": 3870,
      "lin": 3871,
      "tay": 3872,
      "##under": 3873,
      "##anic": 3874,
      "asks": 3875,
      "sac": 3876,
      "favourite": 3877,
      "fle": 3878,
      "onto": 3879,
      "##ands": 3880,
      "craft": 3881,
      "superior": 3882,
      "deserved": 3883,
      "domin": 3884,
      "hitch": 3885,
      "member": 3886,
      "sav": 3887,
      "grad": 3888,
      "strength": 3889,
      "intelligence": 3890,
      "struggle": 3891,
      "stephen": 3892,
      "mountain": 3893,
      "##hic": 3894,
      "##bles": 3895,
      "##atter": 3896,
      "##ita": 3897,
      "wearing": 3898,
      "grow": 3899,
      "captain": 3900,
      "drugs": 3901,
      "criminal": 3902,
      "redeeming": 3903,
      "mob": 3904,
      "naz": 3905,
      "rul": 3906,
      "##asing": 3907,
      "underst": 3908,
      "compare": 3909,
      "daniel": 3910,
      "teenage": 3911,
      "machine": 3912,
      "allowed": 3913,
      "cgi": 3914,
      "##illa": 3915,
      "necessary": 3916,
      "tears": 3917,
      "wonderfully": 3918,
      "helped": 3919,
      "target": 3920,
      "radio": 3921,
      "desperate": 3922,
      "bog": 3923,
      "lay": 3924,
      "rubb": 3925,
      "##gory": 3926,
      "##und": 3927,
      "##oted": 3928,
      "max": 3929,
      "accom": 3930,
      "hund": 3931,
      "repeated": 3932,
      "religious": 3933,
      "fab": 3934,
      "jose": 3935,
      "nomin": 3936,
      "sis": 3937,
      "##kin": 3938,
      "moved": 3939,
      "plane": 3940,
      "##pective": 3941,
      "phone": 3942,
      "insight": 3943,
      "dougl": 3944,
      "theatre": 3945,
      "##earch": 3946,
      "brid": 3947,
      "press": 3948,
      "##ograp": 3949,
      "##soever": 3950,
      "##entional": 3951,
      "includes": 3952,
      "deeply": 3953,
      "gam": 3954,
      "mcc": 3955,
      "##illing": 3956,
      "whatsoever": 3957,
      "research": 3958,
      "##ipped": 3959,
      "process": 3960,
      "sour": 3961,
      "andy": 3962,
      "began": 3963,
      "doz": 3964,
      "humans": 3965,
      "epic": 3966,
      "powers": 3967,
      "commentary": 3968,
      "revolution": 3969,
      "gent": 3970,
      "loving": 3971,
      "heroes": 3972,
      "technical": 3973,
      "nightmare": 3974,
      "ton": 3975,
      "##oos": 3976,
      "suicide": 3977,
      "realized": 3978,
      "joan": 3979,
      "energy": 3980,
      "hint": 3981,
      "lind": 3982,
      "soap": 3983,
      "carl": 3984,
      "friendship": 3985,
      "load": 3986,
      "physical": 3987,
      "taylor": 3988,
      "rarely": 3989,
      "sab": 3990,
      "##ium": 3991,
      "unw": 3992,
      "flesh": 3993,
      "comedic": 3994,
      "curious": 3995,
      "brutal": 3996,
      "independent": 3997,
      "douglas": 3998,
      "60": 3999,
      "core": 4000,
      "dying": 4001,
      "mental": 4002,
      "sid": 4003,
      "##itz": 4004,
      "lew": 4005,
      "empt": 4006,
      "johnny": 4007,
      "guns": 4008,
      "teacher": 4009,
      "cars": 4010,
      "kate": 4011,
      "ry": 4012,
      "##urally": 4013,
      "actions": 4014,
      "introduced": 4015,
      "##ropriate": 4016,
      "kiss": 4017,
      "##ga": 4018,
      "bear": 4019,
      "arts": 4020,
      "board": 4021,
      "engaging": 4022,
      "ron": 4023,
      "##rors": 4024,
      "desire": 4025,
      "slap": 4026,
      "employ": 4027,
      "eddie": 4028,
      "superman": 4029,
      "neighbor": 4030,
      "hyp": 4031,
      "rus": 4032,
      "wil": 4033,
      "anybody": 4034,
      "morgan": 4035,
      "magnific": 4036,
      "unusual": 4037,
      "cho": 4038,
      "chap": 4039,
      "north": 4040,
      "apparent": 4041,
      "pleasure": 4042,
      "remarkable": 4043,
      "##oom": 4044,
      "ford": 4045,
      "ens": 4046,
      "spin": 4047,
      "media": 4048,
      "unknown": 4049,
      "cate": 4050,
      "tun": 4051,
      "ven": 4052,
      "##herent": 4053,
      "##osh": 4054,
      "watchable": 4055,
      "kidn": 4056,
      "england": 4057,
      "hitler": 4058,
      "contrast": 4059,
      "continue": 4060,
      "returns": 4061,
      "river": 4062,
      "unnecessary": 4063,
      "##ube": 4064,
      "##ba": 4065,
      "##ency": 4066,
      "scared": 4067,
      "unin": 4068,
      "tend": 4069,
      "flow": 4070,
      "keaton": 4071,
      "perform": 4072,
      "skip": 4073,
      "memory": 4074,
      "000": 4075,
      "washing": 4076,
      "crash": 4077,
      "provide": 4078,
      "columb": 4079,
      "pilot": 4080,
      "wedding": 4081,
      "jr": 4082,
      "ris": 4083,
      "anywhere": 4084,
      "grat": 4085,
      "purs": 4086,
      "occur": 4087,
      "normally": 4088,
      "##otes": 4089,
      "pra": 4090,
      "knowledge": 4091,
      "bloody": 4092,
      "signific": 4093,
      "limited": 4094,
      "russian": 4095,
      "mike": 4096,
      "finished": 4097,
      "surprising": 4098,
      "freak": 4099,
      "prince": 4100,
      "establish": 4101,
      "hundred": 4102,
      "80s": 4103,
      "cage": 4104,
      "opt": 4105,
      "stret": 4106,
      "twenty": 4107,
      "##iac": 4108,
      "smile": 4109,
      "president": 4110,
      "cops": 4111,
      "motiv": 4112,
      "intriguing": 4113,
      "70s": 4114,
      "fal": 4115,
      "##ashing": 4116,
      "alt": 4117,
      "player": 4118,
      "holds": 4119,
      "torture": 4120,
      "##ographer": 4121,
      "andrew": 4122,
      "brook": 4123,
      "stink": 4124,
      "price": 4125,
      "somebody": 4126,
      "unint": 4127,
      "##apped": 4128,
      "nicely": 4129,
      "luc": 4130,
      "constant": 4131,
      "lynch": 4132,
      "accompl": 4133,
      "fate": 4134,
      "jan": 4135,
      "loss": 4136,
      "rub": 4137,
      "##ras": 4138,
      "##rical": 4139,
      "##lli": 4140,
      "growing": 4141,
      "wanting": 4142,
      "matth": 4143,
      "paced": 4144,
      "crowd": 4145,
      "eth": 4146,
      "ly": 4147,
      "thous": 4148,
      "shir": 4149,
      "vehic": 4150,
      "transl": 4151,
      "reminds": 4152,
      "academy": 4153,
      "gas": 4154,
      "hated": 4155,
      "##ste": 4156,
      "pacing": 4157,
      "ladies": 4158,
      "according": 4159,
      "bow": 4160,
      "fer": 4161,
      "##iven": 4162,
      "##eper": 4163,
      "##kward": 4164,
      "##za": 4165,
      "##bc": 4166,
      "priest": 4167,
      "##ante": 4168,
      "enth": 4169,
      "##ipul": 4170,
      "gene": 4171,
      "bits": 4172,
      "visit": 4173,
      "sword": 4174,
      "asked": 4175,
      "candy": 4176,
      "cass": 4177,
      "ner": 4178,
      "sed": 4179,
      "##ners": 4180,
      "thom": 4181,
      "pretentious": 4182,
      "robb": 4183,
      "heads": 4184,
      "cind": 4185,
      "mine": 4186,
      "##bian": 4187,
      "thir": 4188,
      "##ators": 4189,
      "chore": 4190,
      "##urity": 4191,
      "dressed": 4192,
      "explos": 4193,
      "dor": 4194,
      "albert": 4195,
      "##aph": 4196,
      "awkward": 4197,
      "dar": 4198,
      "eric": 4199,
      "fond": 4200,
      "vol": 4201,
      "ord": 4202,
      "##pper": 4203,
      "lovers": 4204,
      "heroine": 4205,
      "freed": 4206,
      "tarzan": 4207,
      "dangerous": 4208,
      "lies": 4209,
      "##odies": 4210,
      "blame": 4211,
      "saving": 4212,
      "higher": 4213,
      "originally": 4214,
      "intellect": 4215,
      "community": 4216,
      "explanation": 4217,
      "##ousy": 4218,
      "kevin": 4219,
      "instance": 4220,
      "freddy": 4221,
      "jesus": 4222,
      "national": 4223,
      "interact": 4224,
      "account": 4225,
      "issue": 4226,
      "nonsense": 4227,
      "dut": 4228,
      "rod": 4229,
      "##mo": 4230,
      "separ": 4231,
      "mission": 4232,
      "regret": 4233,
      "capture": 4234,
      "deserve": 4235,
      "mixed": 4236,
      "ful": 4237,
      "##ls": 4238,
      "##bi": 4239,
      "##bled": 4240,
      "##iding": 4241,
      "players": 4242,
      "recall": 4243,
      "belong": 4244,
      "gotten": 4245,
      "##ris": 4246,
      "##rous": 4247,
      "toward": 4248,
      "shop": 4249,
      "interpret": 4250,
      "plots": 4251,
      "struct": 4252,
      "##ifer": 4253,
      "explained": 4254,
      "skill": 4255,
      "fights": 4256,
      "reflect": 4257,
      "debut": 4258,
      "##nat": 4259,
      "##bre": 4260,
      "brave": 4261,
      "whil": 4262,
      "resol": 4263,
      "simpl": 4264,
      "creating": 4265,
      "european": 4266,
      "accurate": 4267,
      "gard": 4268,
      "vhs": 4269,
      "##time": 4270,
      "##aus": 4271,
      "##ooper": 4272,
      "atroc": 4273,
      "text": 4274,
      "partner": 4275,
      "starting": 4276,
      "##stein": 4277,
      "gal": 4278,
      "kur": 4279,
      "nic": 4280,
      "sea": 4281,
      "hadn": 4282,
      "humanity": 4283,
      "dimens": 4284,
      "floor": 4285,
      "spanish": 4286,
      "whilst": 4287,
      "cath": 4288,
      "earn": 4289,
      "fif": 4290,
      "jess": 4291,
      "paper": 4292,
      "safe": 4293,
      "model": 4294,
      "sucks": 4295,
      "cali": 4296,
      "naive": 4297,
      "rubbish": 4298,
      "cable": 4299,
      "fet": 4300,
      "##port": 4301,
      "belief": 4302,
      "princi": 4303,
      "officer": 4304,
      "##ked": 4305,
      "##itter": 4306,
      "##entions": 4307,
      "realism": 4308,
      "simon": 4309,
      "educ": 4310,
      "proceed": 4311,
      "memories": 4312,
      "##ruction": 4313,
      "uncon": 4314,
      "broken": 4315,
      "judge": 4316,
      "eating": 4317,
      "tick": 4318,
      "##ker": 4319,
      "##bid": 4320,
      "seat": 4321,
      "finest": 4322,
      "psycho": 4323,
      "villains": 4324,
      "hart": 4325,
      "lone": 4326,
      "##iro": 4327,
      "frame": 4328,
      "manage": 4329,
      "peace": 4330,
      "##pless": 4331,
      "aware": 4332,
      "monsters": 4333,
      "featuring": 4334,
      "lacking": 4335,
      "14": 4336,
      "nin": 4337,
      "tight": 4338,
      "##ym": 4339,
      "##atra": 4340,
      "##anks": 4341,
      "##sem": 4342,
      "saved": 4343,
      "keeping": 4344,
      "trek": 4345,
      "responsible": 4346,
      "santa": 4347,
      "lewis": 4348,
      "gig": 4349,
      "##ested": 4350,
      "abandon": 4351,
      "specif": 4352,
      "below": 4353,
      "kinda": 4354,
      "understanding": 4355,
      "treated": 4356,
      "empty": 4357,
      "##othy": 4358,
      "terribly": 4359,
      "insane": 4360,
      "singer": 4361,
      "cuts": 4362,
      "results": 4363,
      "pulled": 4364,
      "jimmy": 4365,
      "delightful": 4366,
      "represent": 4367,
      "werewolf": 4368,
      "kong": 4369,
      "vs": 4370,
      "vul": 4371,
      "wat": 4372,
      "witty": 4373,
      "##war": 4374,
      "##atory": 4375,
      "##ements": 4376,
      "context": 4377,
      "leon": 4378,
      "charism": 4379,
      "luke": 4380,
      "hopes": 4381,
      "washington": 4382,
      "gary": 4383,
      "hits": 4384,
      "forces": 4385,
      "noticed": 4386,
      "##elle": 4387,
      "morning": 4388,
      "included": 4389,
      "frequ": 4390,
      "months": 4391,
      "##father": 4392,
      "##rays": 4393,
      "##eness": 4394,
      "##lled": 4395,
      "##abor": 4396,
      "surreal": 4397,
      "marvel": 4398,
      "complain": 4399,
      "screaming": 4400,
      "private": 4401,
      "bound": 4402,
      "##hol": 4403,
      "reun": 4404,
      "##asts": 4405,
      "whenever": 4406,
      "contrib": 4407,
      "assist": 4408,
      "driving": 4409,
      "snow": 4410,
      "numerous": 4411,
      "reaction": 4412,
      "blonde": 4413,
      "behavior": 4414,
      "dun": 4415,
      "##oons": 4416,
      "##ario": 4417,
      "organ": 4418,
      "expert": 4419,
      "regular": 4420,
      "streets": 4421,
      "international": 4422,
      "concerned": 4423,
      "cash": 4424,
      "dated": 4425,
      "loy": 4426,
      "pin": 4427,
      "##nam": 4428,
      "wealth": 4429,
      "finale": 4430,
      "contri": 4431,
      "bigger": 4432,
      "talents": 4433,
      "dealing": 4434,
      "##olds": 4435,
      "ordinary": 4436,
      "ow": 4437,
      "##vant": 4438,
      "##ping": 4439,
      "stalk": 4440,
      "##ading": 4441,
      "liber": 4442,
      "ali": 4443,
      "##soci": 4444,
      "unfunny": 4445,
      "skills": 4446,
      "imagin": 4447,
      "reviewers": 4448,
      "naturally": 4449,
      "philos": 4450,
      "discovered": 4451,
      "kim": 4452,
      "##che": 4453,
      "sund": 4454,
      "gross": 4455,
      "pair": 4456,
      "psychological": 4457,
      "circum": 4458,
      "perspective": 4459,
      "traditional": 4460,
      "determ": 4461,
      "opposite": 4462,
      "symbol": 4463,
      "gord": 4464,
      "tap": 4465,
      "vac": 4466,
      "##ront": 4467,
      "##vis": 4468,
      "manipul": 4469,
      "marry": 4470,
      "prove": 4471,
      "junk": 4472,
      "rat": 4473,
      "##imental": 4474,
      "conce": 4475,
      "##arded": 4476,
      "##achel": 4477,
      "boat": 4478,
      "corrupt": 4479,
      "shallow": 4480,
      "anthony": 4481,
      "##ication": 4482,
      "sean": 4483,
      "##ourne": 4484,
      "##ivity": 4485,
      "owner": 4486,
      "locations": 4487,
      "humorous": 4488,
      "gangster": 4489,
      "loses": 4490,
      "challeng": 4491,
      "nich": 4492,
      "##cise": 4493,
      "bell": 4494,
      "cris": 4495,
      "minim": 4496,
      "edited": 4497,
      "##ails": 4498,
      "golden": 4499,
      "cruel": 4500,
      "received": 4501,
      "gags": 4502,
      "##icate": 4503,
      "##esting": 4504,
      "##ulous": 4505,
      "incre": 4506,
      "satire": 4507,
      "captured": 4508,
      "continues": 4509,
      "window": 4510,
      "sharp": 4511,
      "##fortable": 4512,
      "magnificent": 4513,
      "cant": 4514,
      "hay": 4515,
      "##sen": 4516,
      "##isa": 4517,
      "##lyn": 4518,
      "anne": 4519,
      "howard": 4520,
      "calls": 4521,
      "cameo": 4522,
      "murdered": 4523,
      "satur": 4524,
      "mrs": 4525,
      "miles": 4526,
      "survive": 4527,
      "##chester": 4528,
      "bag": 4529,
      "ren": 4530,
      "##cock": 4531,
      "##oke": 4532,
      "deg": 4533,
      "grown": 4534,
      "incomp": 4535,
      "opens": 4536,
      "visually": 4537,
      "corny": 4538,
      "advice": 4539,
      "breaks": 4540,
      "existence": 4541,
      "lucky": 4542,
      "jennifer": 4543,
      "25": 4544,
      "dry": 4545,
      "fict": 4546,
      "lor": 4547,
      "lake": 4548,
      "##vit": 4549,
      "##han": 4550,
      "##bling": 4551,
      "associ": 4552,
      "deals": 4553,
      "screw": 4554,
      "buddy": 4555,
      "colour": 4556,
      "remembered": 4557,
      "batt": 4558,
      "connection": 4559,
      "goof": 4560,
      "veter": 4561,
      "##ja": 4562,
      "##val": 4563,
      "##asm": 4564,
      "##iles": 4565,
      "##ilies": 4566,
      "anton": 4567,
      "chief": 4568,
      "dism": 4569,
      "disp": 4570,
      "report": 4571,
      "essentially": 4572,
      "revealed": 4573,
      "##laim": 4574,
      "segment": 4575,
      "current": 4576,
      "print": 4577,
      "##oses": 4578,
      "trib": 4579,
      "lesson": 4580,
      "frankly": 4581,
      "hallow": 4582,
      "identity": 4583,
      "harris": 4584,
      "african": 4585,
      "foreign": 4586,
      "occasionally": 4587,
      "welles": 4588,
      "##cient": 4589,
      "##bell": 4590,
      "decade": 4591,
      "marie": 4592,
      "center": 4593,
      "village": 4594,
      "franc": 4595,
      "dimensional": 4596,
      "cyn": 4597,
      "ruth": 4598,
      "ward": 4599,
      "##nie": 4600,
      "sull": 4601,
      "distract": 4602,
      "learned": 4603,
      "efforts": 4604,
      "inex": 4605,
      "thomas": 4606,
      "circumst": 4607,
      "kenn": 4608,
      "mitch": 4609,
      "rot": 4610,
      "brad": 4611,
      "##agers": 4612,
      "versions": 4613,
      "visuals": 4614,
      "aust": 4615,
      "kir": 4616,
      "tas": 4617,
      "allows": 4618,
      "mini": 4619,
      "drew": 4620,
      "##aire": 4621,
      "envir": 4622,
      "grim": 4623,
      "strang": 4624,
      "anna": 4625,
      "grew": 4626,
      "sucked": 4627,
      "references": 4628,
      "logic": 4629,
      "genuinely": 4630,
      "comparison": 4631,
      "ah": 4632,
      "bird": 4633,
      "inh": 4634,
      "matt": 4635,
      "study": 4636,
      "iron": 4637,
      "##anned": 4638,
      "fairy": 4639,
      "suffering": 4640,
      "freedom": 4641,
      "##natural": 4642,
      "##ii": 4643,
      "altern": 4644,
      "overly": 4645,
      "ages": 4646,
      "emer": 4647,
      "leader": 4648,
      "meanwhile": 4649,
      "standing": 4650,
      "proved": 4651,
      "experien": 4652,
      "vampires": 4653,
      "haunting": 4654,
      "subtit": 4655,
      "fare": 4656,
      "tack": 4657,
      "##ushing": 4658,
      "mans": 4659,
      "intention": 4660,
      "obl": 4661,
      "brilliantly": 4662,
      "types": 4663,
      "erotic": 4664,
      "ultimate": 4665,
      "improv": 4666,
      "sheriff": 4667,
      "spectacular": 4668,
      "dyn": 4669,
      "lie": 4670,
      "wound": 4671,
      "##ilog": 4672,
      "unable": 4673,
      "sheer": 4674,
      "sake": 4675,
      "obsc": 4676,
      "relief": 4677,
      "parody": 4678,
      "failure": 4679,
      "louis": 4680,
      "photograph": 4681,
      "##porary": 4682,
      "fish": 4683,
      "mic": 4684,
      "mort": 4685,
      "##lock": 4686,
      "##stre": 4687,
      "##uls": 4688,
      "evening": 4689,
      "killers": 4690,
      "passed": 4691,
      "stereotypes": 4692,
      "demonstr": 4693,
      "gratuit": 4694,
      "code": 4695,
      "pitch": 4696,
      "##xual": 4697,
      "##iling": 4698,
      "tex": 4699,
      "advert": 4700,
      "awards": 4701,
      "miser": 4702,
      "sinatra": 4703,
      "creates": 4704,
      "technology": 4705,
      "irritating": 4706,
      "gordon": 4707,
      "halloween": 4708,
      "environ": 4709,
      "kung": 4710,
      "site": 4711,
      "spoof": 4712,
      "laughter": 4713,
      "pleasant": 4714,
      "joseph": 4715,
      "row": 4716,
      "##teen": 4717,
      "anime": 4718,
      "delivered": 4719,
      "parker": 4720,
      "broadway": 4721,
      "cowboy": 4722,
      "barbara": 4723,
      "hung": 4724,
      "##down": 4725,
      "##eston": 4726,
      "crappy": 4727,
      "glass": 4728,
      "uncom": 4729,
      "philosoph": 4730,
      "gonna": 4731,
      "lud": 4732,
      "pity": 4733,
      "uk": 4734,
      "heck": 4735,
      "##usive": 4736,
      "##thy": 4737,
      "##away": 4738,
      "executed": 4739,
      "emotionally": 4740,
      "sacrif": 4741,
      "##night": 4742,
      "stol": 4743,
      "##sell": 4744,
      "shel": 4745,
      "haw": 4746,
      "##rix": 4747,
      "necess": 4748,
      "decision": 4749,
      "reviewer": 4750,
      "hearted": 4751,
      "discovers": 4752,
      "switch": 4753,
      "painfully": 4754,
      "woody": 4755,
      "moore": 4756,
      "encounter": 4757,
      "flashbacks": 4758,
      "dreadful": 4759,
      "native": 4760,
      "##nal": 4761,
      "##ss": 4762,
      "families": 4763,
      "driven": 4764,
      "hunter": 4765,
      "graphic": 4766,
      "gory": 4767,
      "von": 4768,
      "##stick": 4769,
      "convey": 4770,
      "majority": 4771,
      "authent": 4772,
      "religion": 4773,
      "protagonist": 4774,
      "overlook": 4775,
      "nav": 4776,
      "tape": 4777,
      "viet": 4778,
      "asian": 4779,
      "##osen": 4780,
      "##theless": 4781,
      "speech": 4782,
      "attitude": 4783,
      "built": 4784,
      "entertained": 4785,
      "seasons": 4786,
      "silver": 4787,
      "meeting": 4788,
      "caused": 4789,
      "gratuitous": 4790,
      "##rant": 4791,
      "send": 4792,
      "chan": 4793,
      "feet": 4794,
      "wayne": 4795,
      "nevertheless": 4796,
      "underrated": 4797,
      "command": 4798,
      "##gged": 4799,
      "meth": 4800,
      "handsome": 4801,
      "blockb": 4802,
      "vehicle": 4803,
      "cindere": 4804,
      "hood": 4805,
      "rise": 4806,
      "range": 4807,
      "##oring": 4808,
      "shr": 4809,
      "##ums": 4810,
      "endless": 4811,
      "blow": 4812,
      "ade": 4813,
      "##anged": 4814,
      "relate": 4815,
      "##ashed": 4816,
      "##ugos": 4817,
      "generation": 4818,
      "levels": 4819,
      "treatment": 4820,
      "obsessed": 4821,
      "service": 4822,
      "##ville": 4823,
      "france": 4824,
      "quir": 4825,
      "guard": 4826,
      "##ques": 4827,
      "costs": 4828,
      "tedious": 4829,
      "practically": 4830,
      "amateurish": 4831,
      "sports": 4832,
      "aid": 4833,
      "bik": 4834,
      "##gm": 4835,
      "ancient": 4836,
      "aged": 4837,
      "classics": 4838,
      "excited": 4839,
      "theatrical": 4840,
      "inspir": 4841,
      "expression": 4842,
      "victoria": 4843,
      "exploitation": 4844,
      "described": 4845,
      "shadow": 4846,
      "cinderella": 4847,
      "counter": 4848,
      "##lo": 4849,
      "##ya": 4850,
      "##vy": 4851,
      "##icit": 4852,
      "chosen": 4853,
      "consequ": 4854,
      "refres": 4855,
      "winner": 4856,
      "jackie": 4857,
      "popul": 4858,
      "admir": 4859,
      "cliched": 4860,
      "inept": 4861,
      "fortun": 4862,
      "##mes": 4863,
      "##ndy": 4864,
      "hearing": 4865,
      "dropp": 4866,
      "screenwr": 4867,
      "robot": 4868,
      "breaking": 4869,
      "combination": 4870,
      "rescue": 4871,
      "rules": 4872,
      "fame": 4873,
      "##cies": 4874,
      "##nda": 4875,
      "##hern": 4876,
      "clark": 4877,
      "##fornia": 4878,
      "stopped": 4879,
      "##iser": 4880,
      "##ached": 4881,
      "produce": 4882,
      "invis": 4883,
      "portrays": 4884,
      "excit": 4885,
      "theaters": 4886,
      "inevit": 4887,
      "lesbian": 4888,
      "sympathetic": 4889,
      "assume": 4890,
      "hitchcock": 4891,
      "refreshing": 4892,
      "harsh": 4893,
      "nancy": 4894,
      "ya": 4895,
      "asking": 4896,
      "myth": 4897,
      "ende": 4898,
      "cares": 4899,
      "believes": 4900,
      "extras": 4901,
      "capable": 4902,
      "authentic": 4903,
      "raw": 4904,
      "##ault": 4905,
      "##dom": 4906,
      "anderson": 4907,
      "shut": 4908,
      "choose": 4909,
      "##kend": 4910,
      "prost": 4911,
      "portraying": 4912,
      "ruined": 4913,
      "germany": 4914,
      "largely": 4915,
      "contrived": 4916,
      "16": 4917,
      "##erie": 4918,
      "proud": 4919,
      "wrest": 4920,
      "incident": 4921,
      "football": 4922,
      "learns": 4923,
      "hunt": 4924,
      "embarrassing": 4925,
      "karl": 4926,
      "depressing": 4927,
      "canadian": 4928,
      "unrealistic": 4929,
      "dynam": 4930,
      "lion": 4931,
      "link": 4932,
      "##iled": 4933,
      "##chan": 4934,
      "sha": 4935,
      "alco": 4936,
      "##ument": 4937,
      "assass": 4938,
      "##whel": 4939,
      "appealing": 4940,
      "dubbed": 4941,
      "lum": 4942,
      "wre": 4943,
      "##gue": 4944,
      "prior": 4945,
      "sole": 4946,
      "##usi": 4947,
      "clue": 4948,
      "facts": 4949,
      "matters": 4950,
      "sequels": 4951,
      "involves": 4952,
      "ryan": 4953,
      "uninter": 4954,
      "environment": 4955,
      "##zo": 4956,
      "##aming": 4957,
      "neat": 4958,
      "evidence": 4959,
      "minds": 4960,
      "patrick": 4961,
      "propag": 4962,
      "costume": 4963,
      "dinos": 4964,
      "walter": 4965,
      "fictional": 4966,
      "##stream": 4967,
      "cit": 4968,
      "oli": 4969,
      "vote": 4970,
      "##oster": 4971,
      "unfor": 4972,
      "trilog": 4973,
      "##phy": 4974,
      "barry": 4975,
      "strongly": 4976,
      "teenager": 4977,
      "mask": 4978,
      "satisfying": 4979,
      "nominated": 4980,
      "oliver": 4981,
      "om": 4982,
      "##ients": 4983,
      "##isher": 4984,
      "inner": 4985,
      "beach": 4986,
      "##abeth": 4987,
      "##acing": 4988,
      "appropriate": 4989,
      "disgusting": 4990,
      "routine": 4991,
      "excitement": 4992,
      "cub": 4993,
      "lousy": 4994,
      "pitt": 4995,
      "cliff": 4996,
      "knight": 4997,
      "flor": 4998,
      "compos": 4999,
      "talks": 5000,
      "swim": 5001,
      "losing": 5002,
      "substance": 5003,
      "saturday": 5004,
      "nost": 5005,
      "vague": 5006,
      "##cul": 5007,
      "thoughts": 5008,
      "presum": 5009,
      "promise": 5010,
      "extraord": 5011,
      "universal": 5012,
      "till": 5013,
      "##ez": 5014,
      "##win": 5015,
      "##bur": 5016,
      "revel": 5017,
      "##aded": 5018,
      "##udd": 5019,
      "carp": 5020,
      "##ache": 5021,
      "factor": 5022,
      "capital": 5023,
      "training": 5024,
      "voices": 5025,
      "circumstances": 5026,
      "bodies": 5027,
      "offe": 5028,
      "champ": 5029,
      "overd": 5030,
      "##ugs": 5031,
      "distrib": 5032,
      "teenagers": 5033,
      "convinced": 5034,
      "haunted": 5035,
      "baseball": 5036,
      "17": 5037,
      "bern": 5038,
      "jung": 5039,
      "nu": 5040,
      "rough": 5041,
      "##hi": 5042,
      "##oman": 5043,
      "outs": 5044,
      "united": 5045,
      "captures": 5046,
      "purch": 5047,
      "bringing": 5048,
      "execut": 5049,
      "criticism": 5050,
      "dragon": 5051,
      "trilogy": 5052,
      "fits": 5053,
      "tiny": 5054,
      "vinc": 5055,
      "##leep": 5056,
      "forth": 5057,
      "chair": 5058,
      "restr": 5059,
      "involve": 5060,
      "rental": 5061,
      "hanging": 5062,
      "false": 5063,
      "intellectual": 5064,
      "nichol": 5065,
      "francis": 5066,
      "mum": 5067,
      "pit": 5068,
      "sne": 5069,
      "##eg": 5070,
      "##aver": 5071,
      "##pir": 5072,
      "asleep": 5073,
      "##ama": 5074,
      "horribly": 5075,
      "remin": 5076,
      "emph": 5077,
      "eliz": 5078,
      "lower": 5079,
      "creatures": 5080,
      "powell": 5081,
      "hopefully": 5082,
      "virtually": 5083,
      "welcome": 5084,
      "citiz": 5085,
      "rival": 5086,
      "##point": 5087,
      "tow": 5088,
      "clar": 5089,
      "spark": 5090,
      "drop": 5091,
      "192": 5092,
      "spell": 5093,
      "handed": 5094,
      "acqu": 5095,
      "murphy": 5096,
      "experiment": 5097,
      "wins": 5098,
      "walks": 5099,
      "reporter": 5100,
      "##ipping": 5101,
      "descript": 5102,
      "expos": 5103,
      "initial": 5104,
      "relatively": 5105,
      "enthusi": 5106,
      "method": 5107,
      "bore": 5108,
      "dud": 5109,
      "##walk": 5110,
      "forest": 5111,
      "doom": 5112,
      "edward": 5113,
      "steals": 5114,
      "cutting": 5115,
      "covered": 5116,
      "professor": 5117,
      "continuity": 5118,
      "africa": 5119,
      "influence": 5120,
      "category": 5121,
      "ludic": 5122,
      "scale": 5123,
      "offensive": 5124,
      "sitcom": 5125,
      "excess": 5126,
      "controvers": 5127,
      "lawyer": 5128,
      "unlikely": 5129,
      "contemporary": 5130,
      "texas": 5131,
      "nation": 5132,
      "pile": 5133,
      "##raction": 5134,
      "agre": 5135,
      "makeup": 5136,
      "viewed": 5137,
      "handled": 5138,
      "maintain": 5139,
      "truck": 5140,
      "harm": 5141,
      "depicted": 5142,
      "multiple": 5143,
      "semi": 5144,
      "nut": 5145,
      "sout": 5146,
      "beast": 5147,
      "reject": 5148,
      "##aken": 5149,
      "##ighter": 5150,
      "grab": 5151,
      "unfortunate": 5152,
      "laur": 5153,
      "holding": 5154,
      "shocked": 5155,
      "gentle": 5156,
      "russell": 5157,
      "ba": 5158,
      "##uther": 5159,
      "height": 5160,
      "health": 5161,
      "prime": 5162,
      "yell": 5163,
      "##telling": 5164,
      "believed": 5165,
      "subpl": 5166,
      "politics": 5167,
      "adventures": 5168,
      "##anagh": 5169,
      "fix": 5170,
      "jay": 5171,
      "lau": 5172,
      "movement": 5173,
      "section": 5174,
      "pregn": 5175,
      "##osexual": 5176,
      "warn": 5177,
      "presents": 5178,
      "provided": 5179,
      "deaths": 5180,
      "roman": 5181,
      "irish": 5182,
      "promising": 5183,
      "weekend": 5184,
      "qualities": 5185,
      "sisters": 5186,
      "atrocious": 5187,
      "jam": 5188,
      "##arian": 5189,
      "polic": 5190,
      "angles": 5191,
      "touches": 5192,
      "closer": 5193,
      "designed": 5194,
      "australian": 5195,
      "liners": 5196,
      "source": 5197,
      "columbo": 5198,
      "structure": 5199,
      "kath": 5200,
      "mock": 5201,
      "##mother": 5202,
      "##imate": 5203,
      "outrage": 5204,
      "spy": 5205,
      "guil": 5206,
      "guest": 5207,
      "painting": 5208,
      "reput": 5209,
      "ruin": 5210,
      "landsc": 5211,
      "forgettable": 5212,
      "cartoons": 5213,
      "claims": 5214,
      "idiot": 5215,
      "loyal": 5216,
      "caine": 5217,
      "##ada": 5218,
      "##cher": 5219,
      "##oooo": 5220,
      "exagger": 5221,
      "plans": 5222,
      "faced": 5223,
      "preach": 5224,
      "warri": 5225,
      "supernatural": 5226,
      "addict": 5227,
      "surprises": 5228,
      "provo": 5229,
      "colon": 5230,
      "speaks": 5231,
      "previously": 5232,
      "degree": 5233,
      "ded": 5234,
      "jaw": 5235,
      "ken": 5236,
      "lem": 5237,
      "ske": 5238,
      "##cent": 5239,
      "##och": 5240,
      "##rell": 5241,
      "inj": 5242,
      "##etime": 5243,
      "enemy": 5244,
      "serves": 5245,
      "appl": 5246,
      "bitter": 5247,
      "invent": 5248,
      "accents": 5249,
      "glob": 5250,
      "paint": 5251,
      "treasure": 5252,
      "focused": 5253,
      "urban": 5254,
      "roger": 5255,
      "propaganda": 5256,
      "kore": 5257,
      "lon": 5258,
      "ped": 5259,
      "bros": 5260,
      "chose": 5261,
      "whoever": 5262,
      "##abe": 5263,
      "emma": 5264,
      "related": 5265,
      "mainstream": 5266,
      "princess": 5267,
      "pacino": 5268,
      "weeks": 5269,
      "eld": 5270,
      "hip": 5271,
      "table": 5272,
      "##atically": 5273,
      "charl": 5274,
      "teens": 5275,
      "contact": 5276,
      "ideal": 5277,
      "deadly": 5278,
      "suffer": 5279,
      "suffers": 5280,
      "dogs": 5281,
      "latest": 5282,
      "##oppy": 5283,
      "granted": 5284,
      "veteran": 5285,
      "cooper": 5286,
      "gand": 5287,
      "pier": 5288,
      "##ket": 5289,
      "butt": 5290,
      "atl": 5291,
      "alice": 5292,
      "experiences": 5293,
      "benef": 5294,
      "mistakes": 5295,
      "execution": 5296,
      "dollars": 5297,
      "accidentally": 5298,
      "wilson": 5299,
      "invisible": 5300,
      "emphas": 5301,
      "dent": 5302,
      "mgm": 5303,
      "wing": 5304,
      "##uel": 5305,
      "##bed": 5306,
      "notch": 5307,
      "crude": 5308,
      "##ivan": 5309,
      "realizes": 5310,
      "flight": 5311,
      "hoff": 5312,
      "##apping": 5313,
      "grave": 5314,
      "colors": 5315,
      "##heart": 5316,
      "twisted": 5317,
      "sympathy": 5318,
      "unconvin": 5319,
      "aliens": 5320,
      "uninteresting": 5321,
      "bush": 5322,
      "dust": 5323,
      "nude": 5324,
      "sink": 5325,
      "##iat": 5326,
      "##ndam": 5327,
      "##chy": 5328,
      "friday": 5329,
      "wear": 5330,
      "spr": 5331,
      "particip": 5332,
      "##athan": 5333,
      "security": 5334,
      "accomp": 5335,
      "commit": 5336,
      "combined": 5337,
      "prostit": 5338,
      "guilty": 5339,
      "coun": 5340,
      "dub": 5341,
      "jail": 5342,
      "dece": 5343,
      "carol": 5344,
      "aftern": 5345,
      "matrix": 5346,
      "corpor": 5347,
      "universe": 5348,
      "convince": 5349,
      "sensitive": 5350,
      "struggling": 5351,
      "dozen": 5352,
      "accompan": 5353,
      "hong": 5354,
      "torn": 5355,
      "##pre": 5356,
      "whe": 5357,
      "feed": 5358,
      "blah": 5359,
      "diss": 5360,
      "poign": 5361,
      "gritty": 5362,
      "transform": 5363,
      "appreciated": 5364,
      "mirac": 5365,
      "cabin": 5366,
      "gain": 5367,
      "lugos": 5368,
      "##reg": 5369,
      "##ching": 5370,
      "unbe": 5371,
      "contest": 5372,
      "committed": 5373,
      "driver": 5374,
      "walked": 5375,
      "technically": 5376,
      "recognize": 5377,
      "frightening": 5378,
      "##ausible": 5379,
      "lugosi": 5380,
      "aka": 5381,
      "##wy": 5382,
      "##oting": 5383,
      "##ali": 5384,
      "donald": 5385,
      "schem": 5386,
      "magical": 5387,
      "changing": 5388,
      "sarah": 5389,
      "widow": 5390,
      "department": 5391,
      "##enced": 5392,
      "ree": 5393,
      "shark": 5394,
      "overwhel": 5395,
      "directly": 5396,
      "friendly": 5397,
      "explains": 5398,
      "superf": 5399,
      "confront": 5400,
      "darkness": 5401,
      "##ennis": 5402,
      "metal": 5403,
      "franch": 5404,
      "occasional": 5405,
      "faithful": 5406,
      "network": 5407,
      "sullivan": 5408,
      "hoffman": 5409,
      "cul": 5410,
      "wick": 5411,
      "##cl": 5412,
      "thumb": 5413,
      "theory": 5414,
      "abuse": 5415,
      "neck": 5416,
      "offered": 5417,
      "performed": 5418,
      "kinds": 5419,
      "courage": 5420,
      "featured": 5421,
      "anger": 5422,
      "demons": 5423,
      "femin": 5424,
      "variety": 5425,
      "narration": 5426,
      "suspenseful": 5427,
      "massive": 5428,
      "legendary": 5429,
      "surface": 5430,
      "experienced": 5431,
      "vietnam": 5432,
      "reputation": 5433,
      "aunt": 5434,
      "bbc": 5435,
      "rings": 5436,
      "##acc": 5437,
      "storm": 5438,
      "##alling": 5439,
      "meat": 5440,
      "lear": 5441,
      "crying": 5442,
      "contract": 5443,
      "johnson": 5444,
      "passing": 5445,
      "figures": 5446,
      "nazi": 5447,
      "sunday": 5448,
      "subtitles": 5449,
      "bourne": 5450,
      "gather": 5451,
      "lol": 5452,
      "mst": 5453,
      "push": 5454,
      "##don": 5455,
      "##itious": 5456,
      "everywhere": 5457,
      "##umbling": 5458,
      "titanic": 5459,
      "concent": 5460,
      "hugh": 5461,
      "sorts": 5462,
      "rule": 5463,
      "statement": 5464,
      "required": 5465,
      "lonely": 5466,
      "stolen": 5467,
      "rachel": 5468,
      "sen": 5469,
      "sag": 5470,
      "tong": 5471,
      "##zel": 5472,
      "##ares": 5473,
      "ing": 5474,
      "china": 5475,
      "dean": 5476,
      "spite": 5477,
      "bett": 5478,
      "cring": 5479,
      "##formed": 5480,
      "strict": 5481,
      "border": 5482,
      "position": 5483,
      "hammer": 5484,
      "journal": 5485,
      "mirror": 5486,
      "scares": 5487,
      "remotely": 5488,
      "melodrama": 5489,
      "conversation": 5490,
      "california": 5491,
      "nostal": 5492,
      "jungle": 5493,
      "hired": 5494,
      "##nn": 5495,
      "##cr": 5496,
      "##uced": 5497,
      "toy": 5498,
      "##aling": 5499,
      "beck": 5500,
      "##lying": 5501,
      "placed": 5502,
      "seek": 5503,
      "spends": 5504,
      "downright": 5505,
      "trapped": 5506,
      "susan": 5507,
      "irre": 5508,
      "curt": 5509,
      "freeman": 5510,
      "surviv": 5511,
      "philip": 5512,
      "julia": 5513,
      "mexico": 5514,
      "hipp": 5515,
      "pul": 5516,
      "rick": 5517,
      "tax": 5518,
      "toler": 5519,
      "stom": 5520,
      "notorious": 5521,
      "effectively": 5522,
      "worthwhile": 5523,
      "favorites": 5524,
      "captiv": 5525,
      "listening": 5526,
      "figured": 5527,
      "encou": 5528,
      "bothered": 5529,
      "lifetime": 5530,
      "abandoned": 5531,
      "blockbuster": 5532,
      "afternoon": 5533,
      "cy": 5534,
      "cous": 5535,
      "cock": 5536,
      "goth": 5537,
      "lisa": 5538,
      "pig": 5539,
      "##ship": 5540,
      "##lim": 5541,
      "##yle": 5542,
      "##kins": 5543,
      "##bing": 5544,
      "branagh": 5545,
      "sple": 5546,
      "happiness": 5547,
      "evol": 5548,
      "jobs": 5549,
      "imagery": 5550,
      "tales": 5551,
      "admitted": 5552,
      "cultural": 5553,
      "unconvincing": 5554,
      "boot": 5555,
      "foster": 5556,
      "rush": 5557,
      "##mond": 5558,
      "libr": 5559,
      "alas": 5560,
      "alright": 5561,
      "cheese": 5562,
      "consum": 5563,
      "format": 5564,
      "angle": 5565,
      "lights": 5566,
      "jeal": 5567,
      "tremend": 5568,
      "breatht": 5569,
      "mexican": 5570,
      "elizabeth": 5571,
      "ara": 5572,
      "dude": 5573,
      "ned": 5574,
      "##ida": 5575,
      "worry": 5576,
      "teeth": 5577,
      "blown": 5578,
      "maria": 5579,
      "buying": 5580,
      "rights": 5581,
      "mature": 5582,
      "larry": 5583,
      "paying": 5584,
      "pulls": 5585,
      "burns": 5586,
      "upset": 5587,
      "divor": 5588,
      "wreck": 5589,
      "60s": 5590,
      "cust": 5591,
      "cel": 5592,
      "rang": 5593,
      "##atives": 5594,
      "##ari": 5595,
      "scenario": 5596,
      "address": 5597,
      "amazed": 5598,
      "delivery": 5599,
      "rolling": 5600,
      "reveals": 5601,
      "starred": 5602,
      "productions": 5603,
      "ze": 5604,
      "##dies": 5605,
      "##reh": 5606,
      "stays": 5607,
      "tear": 5608,
      "views": 5609,
      "artists": 5610,
      "grey": 5611,
      "stayed": 5612,
      "focuses": 5613,
      "1950": 5614,
      "thankfully": 5615,
      "pupp": 5616,
      "status": 5617,
      "significant": 5618,
      "eve": 5619,
      "wand": 5620,
      "##stone": 5621,
      "##oln": 5622,
      "##iger": 5623,
      "##tended": 5624,
      "##aughters": 5625,
      "indie": 5626,
      "studios": 5627,
      "examples": 5628,
      "demand": 5629,
      "honor": 5630,
      "device": 5631,
      "campy": 5632,
      "complicated": 5633,
      "ghosts": 5634,
      "praise": 5635,
      "ludicrous": 5636,
      "math": 5637,
      "reb": 5638,
      "##amor": 5639,
      "##outs": 5640,
      "intens": 5641,
      "grues": 5642,
      "india": 5643,
      "heavily": 5644,
      "ignor": 5645,
      "sidney": 5646,
      "necessarily": 5647,
      "reminisc": 5648,
      "rank": 5649,
      "tree": 5650,
      "outf": 5651,
      "spring": 5652,
      "indul": 5653,
      "hardy": 5654,
      "inspect": 5655,
      "murderer": 5656,
      "cannib": 5657,
      "profound": 5658,
      "fourth": 5659,
      "##belief": 5660,
      "sleeping": 5661,
      "desperately": 5662,
      "understood": 5663,
      "ain": 5664,
      "bol": 5665,
      "si": 5666,
      "##nox": 5667,
      "##ato": 5668,
      "##ani": 5669,
      "##ety": 5670,
      "lift": 5671,
      "facial": 5672,
      "guar": 5673,
      "beloved": 5674,
      "obnox": 5675,
      "term": 5676,
      "warner": 5677,
      "midnight": 5678,
      "closing": 5679,
      "integr": 5680,
      "destroyed": 5681,
      "initially": 5682,
      "summary": 5683,
      "fabulous": 5684,
      "slapstick": 5685,
      "pregnant": 5686,
      "stomach": 5687,
      "obnoxious": 5688,
      "fed": 5689,
      "gall": 5690,
      "linc": 5691,
      "tag": 5692,
      "braz": 5693,
      "deeper": 5694,
      "argu": 5695,
      "peck": 5696,
      "blat": 5697,
      "##reek": 5698,
      "decades": 5699,
      "install": 5700,
      "distinct": 5701,
      "magaz": 5702,
      "renting": 5703,
      "ignore": 5704,
      "stereotypical": 5705,
      "racist": 5706,
      "inhab": 5707,
      "bang": 5708,
      "dennis": 5709,
      "gab": 5710,
      "lust": 5711,
      "##tes": 5712,
      "##bit": 5713,
      "shape": 5714,
      "league": 5715,
      "craw": 5716,
      "helping": 5717,
      "corner": 5718,
      "anticip": 5719,
      "metaph": 5720,
      "answers": 5721,
      "gruesome": 5722,
      "lincoln": 5723,
      "bul": 5724,
      "##enge": 5725,
      "doc": 5726,
      "arms": 5727,
      "disbelief": 5728,
      "grin": 5729,
      "underground": 5730,
      "sounded": 5731,
      "calling": 5732,
      "critical": 5733,
      "musicals": 5734,
      "1980": 5735,
      "settings": 5736,
      "drinking": 5737,
      "task": 5738,
      "description": 5739,
      "learning": 5740,
      "reminiscent": 5741,
      "daughters": 5742,
      "##gia": 5743,
      "##mate": 5744,
      "plant": 5745,
      "greater": 5746,
      "warned": 5747,
      "minded": 5748,
      "amazingly": 5749,
      "julie": 5750,
      "condition": 5751,
      "sandler": 5752,
      "criminals": 5753,
      "regarding": 5754,
      "mildly": 5755,
      "princip": 5756,
      "quirky": 5757,
      "splend": 5758,
      "bac": 5759,
      "dal": 5760,
      "gle": 5761,
      "hind": 5762,
      "sides": 5763,
      "wave": 5764,
      "reed": 5765,
      "web": 5766,
      "storytelling": 5767,
      "throwing": 5768,
      "screening": 5769,
      "halfway": 5770,
      "titles": 5771,
      "##gging": 5772,
      "claire": 5773,
      "leslie": 5774,
      "turkey": 5775,
      "funnier": 5776,
      "autom": 5777,
      "extraordinary": 5778,
      "nom": 5779,
      "pian": 5780,
      "vivid": 5781,
      "##oor": 5782,
      "##burn": 5783,
      "##rend": 5784,
      "shell": 5785,
      "gro": 5786,
      "stylish": 5787,
      "depiction": 5788,
      "swed": 5789,
      "advant": 5790,
      "michelle": 5791,
      "severe": 5792,
      "repet": 5793,
      "prepared": 5794,
      "ell": 5795,
      "fel": 5796,
      "via": 5797,
      "##ffe": 5798,
      "isol": 5799,
      "##ales": 5800,
      "##ader": 5801,
      "comical": 5802,
      "arn": 5803,
      "preview": 5804,
      "##atherine": 5805,
      "misf": 5806,
      "originality": 5807,
      "extent": 5808,
      "deliber": 5809,
      "sophistic": 5810,
      "choices": 5811,
      "jessica": 5812,
      "dump": 5813,
      "lane": 5814,
      "mouse": 5815,
      "thunder": 5816,
      "clock": 5817,
      "disag": 5818,
      "miscast": 5819,
      "access": 5820,
      "cole": 5821,
      "headed": 5822,
      "raised": 5823,
      "touched": 5824,
      "##ission": 5825,
      "strip": 5826,
      "massac": 5827,
      "rogers": 5828,
      "brooks": 5829,
      "vacation": 5830,
      "vincent": 5831,
      "bollywood": 5832,
      "##ston": 5833,
      "seag": 5834,
      "sevent": 5835,
      "chilling": 5836,
      "timing": 5837,
      "##plays": 5838,
      "incor": 5839,
      "basis": 5840,
      "elev": 5841,
      "spoken": 5842,
      "picks": 5843,
      "burt": 5844,
      "miller": 5845,
      "stunt": 5846,
      "homosexual": 5847,
      "purely": 5848,
      "dollar": 5849,
      "smooth": 5850,
      "graphics": 5851,
      "inspiration": 5852,
      "cus": 5853,
      "gad": 5854,
      "lazy": 5855,
      "mol": 5856,
      "pool": 5857,
      "vent": 5858,
      "##hh": 5859,
      "##icial": 5860,
      "notable": 5861,
      "exh": 5862,
      "charge": 5863,
      "noble": 5864,
      "overact": 5865,
      "join": 5866,
      "hole": 5867,
      "subsequ": 5868,
      "handle": 5869,
      "coinc": 5870,
      "concert": 5871,
      "2000": 5872,
      "novels": 5873,
      "steps": 5874,
      "introduction": 5875,
      "essential": 5876,
      "stanley": 5877,
      "weapon": 5878,
      "weapons": 5879,
      "carpent": 5880,
      "breathtaking": 5881,
      "tab": 5882,
      "vast": 5883,
      "voy": 5884,
      "##cra": 5885,
      "##eral": 5886,
      "##oration": 5887,
      "reward": 5888,
      "##adays": 5889,
      "cha": 5890,
      "cher": 5891,
      "##umph": 5892,
      "blair": 5893,
      "throws": 5894,
      "everyday": 5895,
      "maker": 5896,
      "serve": 5897,
      "nowadays": 5898,
      "##beat": 5899,
      "##ibilities": 5900,
      "strangely": 5901,
      "properly": 5902,
      "succeeds": 5903,
      "locked": 5904,
      "crafted": 5905,
      "bart": 5906,
      "fay": 5907,
      "py": 5908,
      "pad": 5909,
      "##kh": 5910,
      "##ona": 5911,
      "alb": 5912,
      "alter": 5913,
      "weight": 5914,
      "wears": 5915,
      "unh": 5916,
      "##udes": 5917,
      "caring": 5918,
      "cheer": 5919,
      "tracy": 5920,
      "adding": 5921,
      "portra": 5922,
      "laura": 5923,
      "psychiat": 5924,
      "ratings": 5925,
      "causes": 5926,
      "reference": 5927,
      "determined": 5928,
      "provoking": 5929,
      "doo": 5930,
      "wolf": 5931,
      "##mates": 5932,
      "##ila": 5933,
      "fac": 5934,
      "workers": 5935,
      "##ifies": 5936,
      "triumph": 5937,
      "lesser": 5938,
      "fallen": 5939,
      "assign": 5940,
      "2006": 5941,
      "noneth": 5942,
      "1970": 5943,
      "atmospher": 5944,
      "daily": 5945,
      "carrying": 5946,
      "challenge": 5947,
      "hence": 5948,
      "pound": 5949,
      "ral": 5950,
      "##gress": 5951,
      "##race": 5952,
      "nel": 5953,
      "outd": 5954,
      "##oyd": 5955,
      "spook": 5956,
      "adop": 5957,
      "usa": 5958,
      "##plic": 5959,
      "slaughter": 5960,
      "resist": 5961,
      "relax": 5962,
      "sinister": 5963,
      "raise": 5964,
      "sleazy": 5965,
      "busy": 5966,
      "amongst": 5967,
      "westerns": 5968,
      "jumps": 5969,
      "jewish": 5970,
      "risk": 5971,
      "established": 5972,
      "##iveness": 5973,
      "kurt": 5974,
      "southern": 5975,
      "##wyck": 5976,
      "nonetheless": 5977,
      "cave": 5978,
      "fo": 5979,
      "fid": 5980,
      "iv": 5981,
      "##sky": 5982,
      "##ught": 5983,
      "##anity": 5984,
      "stell": 5985,
      "pros": 5986,
      "diam": 5987,
      "shower": 5988,
      "spiel": 5989,
      "carries": 5990,
      "carried": 5991,
      "##tending": 5992,
      "confusion": 5993,
      "attempting": 5994,
      "retarded": 5995,
      "##ception": 5996,
      "manager": 5997,
      "obser": 5998,
      "cases": 5999,
      "embarrassed": 6000,
      "holmes": 6001,
      "escapes": 6002,
      "bettie": 6003,
      "hi": 6004,
      "hob": 6005,
      "nine": 6006,
      "tempt": 6007,
      "##ca": 6008,
      "##ration": 6009,
      "##pire": 6010,
      "##enom": 6011,
      "unins": 6012,
      "clips": 6013,
      "showc": 6014,
      "##ishes": 6015,
      "enjoying": 6016,
      "needless": 6017,
      "ironic": 6018,
      "madness": 6019,
      "broke": 6020,
      "sentimental": 6021,
      "obsession": 6022,
      "arrives": 6023,
      "replaced": 6024,
      "interpretation": 6025,
      "navy": 6026,
      "inspector": 6027,
      "gut": 6028,
      "upper": 6029,
      "##hay": 6030,
      "exists": 6031,
      "enh": 6032,
      "intentions": 6033,
      "seeking": 6034,
      "thro": 6035,
      "conspir": 6036,
      "angels": 6037,
      "successfully": 6038,
      "2001": 6039,
      "construct": 6040,
      "existent": 6041,
      "stanwyck": 6042,
      "balance": 6043,
      "oliv": 6044,
      "goofy": 6045,
      "mansion": 6046,
      "screenwriter": 6047,
      "brazil": 6048,
      "carpenter": 6049,
      "uninsp": 6050,
      "ira": 6051,
      "jake": 6052,
      "suther": 6053,
      "##fia": 6054,
      "##ils": 6055,
      "##ouses": 6056,
      "unre": 6057,
      "legs": 6058,
      "letter": 6059,
      "coh": 6060,
      "absor": 6061,
      "possess": 6062,
      "topic": 6063,
      "lucy": 6064,
      "laid": 6065,
      "infam": 6066,
      "illustr": 6067,
      "oddly": 6068,
      "presentation": 6069,
      "attacked": 6070,
      "mentally": 6071,
      "horrific": 6072,
      "catholic": 6073,
      "##semble": 6074,
      "marvelous": 6075,
      "sutherland": 6076,
      "fisher": 6077,
      "mall": 6078,
      "##orig": 6079,
      "##lection": 6080,
      "##ilton": 6081,
      "dear": 6082,
      "disgu": 6083,
      "comedian": 6084,
      "subm": 6085,
      "phenom": 6086,
      "conscious": 6087,
      "burst": 6088,
      "neighb": 6089,
      "brando": 6090,
      "fulf": 6091,
      "fortunately": 6092,
      "mst3": 6093,
      "24": 6094,
      "hick": 6095,
      "wanna": 6096,
      "##rist": 6097,
      "##gas": 6098,
      "thief": 6099,
      "bew": 6100,
      "stiff": 6101,
      "alle": 6102,
      "croc": 6103,
      "served": 6104,
      "decl": 6105,
      "instinct": 6106,
      "stupidity": 6107,
      "stops": 6108,
      "patient": 6109,
      "attacks": 6110,
      "convict": 6111,
      "dawn": 6112,
      "immense": 6113,
      "ashamed": 6114,
      "interviews": 6115,
      "bridge": 6116,
      "neighborhood": 6117,
      "intensity": 6118,
      "ralph": 6119,
      "penn": 6120,
      "##order": 6121,
      "andre": 6122,
      "attend": 6123,
      "albe": 6124,
      "blank": 6125,
      "dise": 6126,
      "traum": 6127,
      "farm": 6128,
      "thrilling": 6129,
      "personalities": 6130,
      "spiritual": 6131,
      "packed": 6132,
      "wwii": 6133,
      "matthau": 6134,
      "frequently": 6135,
      "tongue": 6136,
      "albeit": 6137,
      "bust": 6138,
      "gill": 6139,
      "rum": 6140,
      "##aves": 6141,
      "##rence": 6142,
      "##ule": 6143,
      "##ito": 6144,
      "proof": 6145,
      "dod": 6146,
      "finan": 6147,
      "phill": 6148,
      "parall": 6149,
      "geor": 6150,
      "flawed": 6151,
      "1950s": 6152,
      "dinner": 6153,
      "suspects": 6154,
      "baker": 6155,
      "elder": 6156,
      "poignant": 6157,
      "seagal": 6158,
      "spielberg": 6159,
      "bald": 6160,
      "cob": 6161,
      "dere": 6162,
      "hills": 6163,
      "nol": 6164,
      "oz": 6165,
      "ric": 6166,
      "##face": 6167,
      "##isand": 6168,
      "isra": 6169,
      "##ieu": 6170,
      "sham": 6171,
      "##actic": 6172,
      "##geon": 6173,
      "dign": 6174,
      "cance": 6175,
      "bette": 6176,
      "betray": 6177,
      "rochester": 6178,
      "horrend": 6179,
      "stranger": 6180,
      "inco": 6181,
      "elvir": 6182,
      "mindless": 6183,
      "opened": 6184,
      "drives": 6185,
      "riding": 6186,
      "innov": 6187,
      "expressions": 6188,
      "struggles": 6189,
      "terrifying": 6190,
      "internet": 6191,
      "widmark": 6192,
      "az": 6193,
      "ecc": 6194,
      "etern": 6195,
      "hors": 6196,
      "kud": 6197,
      "las": 6198,
      "##mal": 6199,
      "beating": 6200,
      "pride": 6201,
      "plastic": 6202,
      "##ago": 6203,
      "overcome": 6204,
      "greatly": 6205,
      "dislike": 6206,
      "elvis": 6207,
      "announ": 6208,
      "styl": 6209,
      "refuses": 6210,
      "credibility": 6211,
      "occup": 6212,
      "wishes": 6213,
      "burton": 6214,
      "##ification": 6215,
      "err": 6216,
      "adapted": 6217,
      "revolves": 6218,
      "innocence": 6219,
      "arrog": 6220,
      "aston": 6221,
      "imaginative": 6222,
      "minimal": 6223,
      "cynical": 6224,
      "franchise": 6225,
      "advantage": 6226,
      "israel": 6227,
      "boll": 6228,
      "fbi": 6229,
      "tense": 6230,
      "tune": 6231,
      "wra": 6232,
      "##iques": 6233,
      "##fall": 6234,
      "##asant": 6235,
      "italy": 6236,
      "##icing": 6237,
      "forbid": 6238,
      "##ament": 6239,
      "choos": 6240,
      "trite": 6241,
      "lessons": 6242,
      "sket": 6243,
      "redempt": 6244,
      "credible": 6245,
      "streisand": 6246,
      "medical": 6247,
      "racism": 6248,
      "dubbing": 6249,
      "thousands": 6250,
      "garden": 6251,
      "wealthy": 6252,
      "controversial": 6253,
      "dentist": 6254,
      "nelson": 6255,
      "diamond": 6256,
      "elvira": 6257,
      "daw": 6258,
      "fiance": 6259,
      "jac": 6260,
      "mes": 6261,
      "tall": 6262,
      "##drop": 6263,
      "##inal": 6264,
      "##eds": 6265,
      "rend": 6266,
      "dol": 6267,
      "caric": 6268,
      "happily": 6269,
      "trial": 6270,
      "sinc": 6271,
      "bugs": 6272,
      "helen": 6273,
      "##ello": 6274,
      "##appy": 6275,
      "perfection": 6276,
      "wilder": 6277,
      "puzz": 6278,
      "equal": 6279,
      "##blance": 6280,
      "krist": 6281,
      "crisis": 6282,
      "wheel": 6283,
      "barr": 6284,
      "nur": 6285,
      "##iments": 6286,
      "alike": 6287,
      "##ela": 6288,
      "##elve": 6289,
      "prevent": 6290,
      "carter": 6291,
      "##entionally": 6292,
      "corp": 6293,
      "raj": 6294,
      "countries": 6295,
      "conclud": 6296,
      "##ologist": 6297,
      "guessing": 6298,
      "thrillers": 6299,
      "physically": 6300,
      "broadcast": 6301,
      "hundreds": 6302,
      "andrews": 6303,
      "reunion": 6304,
      "unforget": 6305,
      "derek": 6306,
      "hud": 6307,
      "##rie": 6308,
      "render": 6309,
      "wasting": 6310,
      "cham": 6311,
      "depe": 6312,
      "manh": 6313,
      "nose": 6314,
      "##aker": 6315,
      "poke": 6316,
      "flav": 6317,
      "chew": 6318,
      "enjoyment": 6319,
      "craz": 6320,
      "shorts": 6321,
      "technique": 6322,
      "suffered": 6323,
      "##shi": 6324,
      "sexuality": 6325,
      "##ophob": 6326,
      "griff": 6327,
      "gripping": 6328,
      "disappear": 6329,
      "chaplin": 6330,
      "performers": 6331,
      "sincere": 6332,
      "eager": 6333,
      "sings": 6334,
      "sons": 6335,
      "tied": 6336,
      "yu": 6337,
      "shy": 6338,
      "shines": 6339,
      "comfort": 6340,
      "ensemble": 6341,
      "firm": 6342,
      "##forms": 6343,
      "##berl": 6344,
      "whereas": 6345,
      "parent": 6346,
      "glimp": 6347,
      "ourselves": 6348,
      "dancer": 6349,
      "satan": 6350,
      "britain": 6351,
      "millions": 6352,
      "hunting": 6353,
      "##attan": 6354,
      "connected": 6355,
      "separate": 6356,
      "uncomfortable": 6357,
      "gadget": 6358,
      "mst3k": 6359,
      "glimpse": 6360,
      "bot": 6361,
      "boun": 6362,
      "viv": 6363,
      "##pet": 6364,
      "thick": 6365,
      "pray": 6366,
      "compr": 6367,
      "enorm": 6368,
      "mechan": 6369,
      "poet": 6370,
      "##assion": 6371,
      "unfold": 6372,
      "eleg": 6373,
      "iran": 6374,
      "irony": 6375,
      "exceptional": 6376,
      "##airs": 6377,
      "transfer": 6378,
      "##iffer": 6379,
      "flynn": 6380,
      "profession": 6381,
      "hyster": 6382,
      "holiday": 6383,
      "assistant": 6384,
      "adequ": 6385,
      "karloff": 6386,
      "wicked": 6387,
      "arnold": 6388,
      "atmospheric": 6389,
      "infamous": 6390,
      "cup": 6391,
      "cube": 6392,
      "hes": 6393,
      "##ties": 6394,
      "##alia": 6395,
      "wash": 6396,
      "exer": 6397,
      "##istent": 6398,
      "knife": 6399,
      "carn": 6400,
      "gras": 6401,
      "elabor": 6402,
      "scripts": 6403,
      "parad": 6404,
      "glory": 6405,
      "homeless": 6406,
      "winter": 6407,
      "curse": 6408,
      "weakness": 6409,
      "oscars": 6410,
      "meaningful": 6411,
      "fatal": 6412,
      "official": 6413,
      "searching": 6414,
      "oblig": 6415,
      "cousin": 6416,
      "aired": 6417,
      "bach": 6418,
      "cos": 6419,
      "lur": 6420,
      "lying": 6421,
      "pg": 6422,
      "inher": 6423,
      "##rian": 6424,
      "plague": 6425,
      "unpr": 6426,
      "mupp": 6427,
      "flu": 6428,
      "##quis": 6429,
      "resort": 6430,
      "empath": 6431,
      "basket": 6432,
      "letting": 6433,
      "cameos": 6434,
      "patri": 6435,
      "protagonists": 6436,
      "scratch": 6437,
      "savage": 6438,
      "battles": 6439,
      "unbear": 6440,
      "oil": 6441,
      "wiz": 6442,
      "zone": 6443,
      "toile": 6444,
      "chasing": 6445,
      "frag": 6446,
      "activ": 6447,
      "quote": 6448,
      "entry": 6449,
      "hamlet": 6450,
      "troubled": 6451,
      "suggests": 6452,
      "idiotic": 6453,
      "folk": 6454,
      "fortune": 6455,
      "split": 6456,
      "stretch": 6457,
      "massacre": 6458,
      "portrait": 6459,
      "horses": 6460,
      "pam": 6461,
      "##vably": 6462,
      "item": 6463,
      "stumb": 6464,
      "noted": 6465,
      "##aki": 6466,
      "tender": 6467,
      "lovable": 6468,
      "guilt": 6469,
      "trav": 6470,
      "phant": 6471,
      "consists": 6472,
      "explicit": 6473,
      "develops": 6474,
      "hoped": 6475,
      "jerk": 6476,
      "accepted": 6477,
      "burning": 6478,
      "colorful": 6479,
      "hiding": 6480,
      "stealing": 6481,
      "thousand": 6482,
      "thirty": 6483,
      "specific": 6484,
      "splendid": 6485,
      "unforgettable": 6486,
      "dare": 6487,
      "guts": 6488,
      "pir": 6489,
      "tam": 6490,
      "chases": 6491,
      "##uman": 6492,
      "spots": 6493,
      "saves": 6494,
      "attraction": 6495,
      "territ": 6496,
      "worlds": 6497,
      "basement": 6498,
      "annoyed": 6499,
      "larger": 6500,
      "roberts": 6501,
      "ultra": 6502,
      "ambig": 6503,
      "lucas": 6504,
      "inexplic": 6505,
      "redemption": 6506,
      "300": 6507,
      "ack": 6508,
      "catherine": 6509,
      "pap": 6510,
      "wann": 6511,
      "##nic": 6512,
      "##ora": 6513,
      "##opath": 6514,
      "##apes": 6515,
      "cheek": 6516,
      "factory": 6517,
      "glover": 6518,
      "superher": 6519,
      "boom": 6520,
      "dialogs": 6521,
      "restaur": 6522,
      "corn": 6523,
      "walken": 6524,
      "shoots": 6525,
      "destruction": 6526,
      "repeat": 6527,
      "dorothy": 6528,
      "belongs": 6529,
      "atlant": 6530,
      "curtis": 6531,
      "dur": 6532,
      "econ": 6533,
      "eerie": 6534,
      "hanks": 6535,
      "ramp": 6536,
      "wake": 6537,
      "##tt": 6538,
      "##core": 6539,
      "##rum": 6540,
      "##oz": 6541,
      "##jud": 6542,
      "##pass": 6543,
      "##ata": 6544,
      "todd": 6545,
      "infect": 6546,
      "bride": 6547,
      "##cho": 6548,
      "##idents": 6549,
      "chic": 6550,
      "scoo": 6551,
      "trade": 6552,
      "##aky": 6553,
      "backdrop": 6554,
      "##ocr": 6555,
      "margar": 6556,
      "appearing": 6557,
      "dramas": 6558,
      "eleph": 6559,
      "denzel": 6560,
      "encoun": 6561,
      "boredom": 6562,
      "cusack": 6563,
      "hudson": 6564,
      "1st": 6565,
      "99": 6566,
      "gim": 6567,
      "jen": 6568,
      "kap": 6569,
      "kane": 6570,
      "##ye": 6571,
      "thread": 6572,
      "bears": 6573,
      "stall": 6574,
      "##ads": 6575,
      "neil": 6576,
      "shep": 6577,
      "perpet": 6578,
      "incons": 6579,
      "pointed": 6580,
      "confess": 6581,
      "##ggie": 6582,
      "closely": 6583,
      "2005": 6584,
      "##etta": 6585,
      "expensive": 6586,
      "franco": 6587,
      "scientists": 6588,
      "newsp": 6589,
      "concerns": 6590,
      "competent": 6591,
      "rhy": 6592,
      "kirk": 6593,
      "library": 6594,
      "##craft": 6595,
      "econom": 6596,
      "encounters": 6597,
      "bin": 6598,
      "nail": 6599,
      "pse": 6600,
      "sque": 6601,
      "vig": 6602,
      "##enstein": 6603,
      "ish": 6604,
      "sends": 6605,
      "goal": 6606,
      "spread": 6607,
      "crimes": 6608,
      "awe": 6609,
      "eva": 6610,
      "lloyd": 6611,
      "##ointed": 6612,
      "elsewhere": 6613,
      "luci": 6614,
      "huh": 6615,
      "controll": 6616,
      "launch": 6617,
      "solve": 6618,
      "appearances": 6619,
      "checking": 6620,
      "virus": 6621,
      "complaint": 6622,
      "stunts": 6623,
      "loser": 6624,
      "afford": 6625,
      "achieved": 6626,
      "segments": 6627,
      "canada": 6628,
      "hooked": 6629,
      "eastwood": 6630,
      "endearing": 6631,
      "custom": 6632,
      "cannibal": 6633,
      "disagree": 6634,
      "pseud": 6635,
      "mam": 6636,
      "pi": 6637,
      "rushed": 6638,
      "ripped": 6639,
      "##kick": 6640,
      "toss": 6641,
      "##any": 6642,
      "shaw": 6643,
      "alf": 6644,
      "drown": 6645,
      "##ographic": 6646,
      "dragged": 6647,
      "swing": 6648,
      "rocks": 6649,
      "secretary": 6650,
      "jeremy": 6651,
      "essence": 6652,
      "fashioned": 6653,
      "bobby": 6654,
      "charisma": 6655,
      "tribute": 6656,
      "citizen": 6657,
      "incoherent": 6658,
      "fitting": 6659,
      "hitting": 6660,
      "jet": 6661,
      "lan": 6662,
      "##reen": 6663,
      "brill": 6664,
      "##overy": 6665,
      "reyn": 6666,
      "abrupt": 6667,
      "maid": 6668,
      "maniac": 6669,
      "noise": 6670,
      "tea": 6671,
      "gray": 6672,
      "muslim": 6673,
      "##ifying": 6674,
      "believing": 6675,
      "godfather": 6676,
      "dealt": 6677,
      "photographer": 6678,
      "sentiment": 6679,
      "striking": 6680,
      "salv": 6681,
      "tricks": 6682,
      "birthday": 6683,
      "ingred": 6684,
      "45": 6685,
      "heston": 6686,
      "kub": 6687,
      "marsh": 6688,
      "ritter": 6689,
      "tang": 6690,
      "##ni": 6691,
      "##esis": 6692,
      "inse": 6693,
      "stoo": 6694,
      "##chant": 6695,
      "fears": 6696,
      "##isha": 6697,
      "resour": 6698,
      "triv": 6699,
      "##gger": 6700,
      "videos": 6701,
      "attempted": 6702,
      "countless": 6703,
      "techniques": 6704,
      "poster": 6705,
      "reactions": 6706,
      "briefly": 6707,
      "leonard": 6708,
      "thumbs": 6709,
      "gothic": 6710,
      "magazine": 6711,
      "phenomen": 6712,
      "scooby": 6713,
      "covers": 6714,
      "hust": 6715,
      "ker": 6716,
      "mun": 6717,
      "pond": 6718,
      "sally": 6719,
      "##nan": 6720,
      "##arm": 6721,
      "inacc": 6722,
      "##alo": 6723,
      "##entric": 6724,
      "heat": 6725,
      "##ira": 6726,
      "outl": 6727,
      "##istically": 6728,
      "mann": 6729,
      "clint": 6730,
      "clown": 6731,
      "spa": 6732,
      "bug": 6733,
      "sexually": 6734,
      "cox": 6735,
      "giall": 6736,
      "hearts": 6737,
      "motor": 6738,
      "1990": 6739,
      "strikes": 6740,
      "inspiring": 6741,
      "iii": 6742,
      "unintentionally": 6743,
      "charismatic": 6744,
      "horrendous": 6745,
      "ax": 6746,
      "bare": 6747,
      "bible": 6748,
      "eg": 6749,
      "ic": 6750,
      "kaz": 6751,
      "mile": 6752,
      "sov": 6753,
      "tons": 6754,
      "##oub": 6755,
      "tool": 6756,
      "##lear": 6757,
      "plat": 6758,
      "spike": 6759,
      "poison": 6760,
      "carrey": 6761,
      "grows": 6762,
      "carefully": 6763,
      "eyed": 6764,
      "importance": 6765,
      "forgive": 6766,
      "grandmother": 6767,
      "limit": 6768,
      "hype": 6769,
      "smoking": 6770,
      "surrounding": 6771,
      "surrounded": 6772,
      "admittedly": 6773,
      "##rehens": 6774,
      "00": 6775,
      "21": 6776,
      "kh": 6777,
      "kitch": 6778,
      "pover": 6779,
      "vin": 6780,
      "##iable": 6781,
      "##iently": 6782,
      "##rob": 6783,
      "##gate": 6784,
      "##asingly": 6785,
      "stood": 6786,
      "chances": 6787,
      "##uristic": 6788,
      "comics": 6789,
      "upd": 6790,
      "arc": 6791,
      "fired": 6792,
      "##ishment": 6793,
      "spending": 6794,
      "string": 6795,
      "editor": 6796,
      "monkey": 6797,
      "engine": 6798,
      "detract": 6799,
      "relevant": 6800,
      "stronger": 6801,
      "homage": 6802,
      "walls": 6803,
      "##coming": 6804,
      "##uclear": 6805,
      "kicks": 6806,
      "medium": 6807,
      "##worth": 6808,
      "revelation": 6809,
      "kubrick": 6810,
      "poverty": 6811,
      "cens": 6812,
      "ego": 6813,
      "ian": 6814,
      "kat": 6815,
      "lit": 6816,
      "lily": 6817,
      "vicious": 6818,
      "##aid": 6819,
      "##ype": 6820,
      "rex": 6821,
      "stated": 6822,
      "webs": 6823,
      "conven": 6824,
      "unim": 6825,
      "meg": 6826,
      "imit": 6827,
      "killings": 6828,
      "attached": 6829,
      "enters": 6830,
      "childish": 6831,
      "glor": 6832,
      "useless": 6833,
      "easier": 6834,
      "duke": 6835,
      "1970s": 6836,
      "judg": 6837,
      "strike": 6838,
      "requires": 6839,
      "labor": 6840,
      "represents": 6841,
      "astaire": 6842,
      "miike": 6843,
      "alcohol": 6844,
      "executive": 6845,
      "aks": 6846,
      "gift": 6847,
      "mars": 6848,
      "rome": 6849,
      "um": 6850,
      "##gun": 6851,
      "##ds": 6852,
      "##hoe": 6853,
      "##isation": 6854,
      "tooth": 6855,
      "exch": 6856,
      "abys": 6857,
      "mafia": 6858,
      "##usions": 6859,
      "orch": 6860,
      "union": 6861,
      "root": 6862,
      "performing": 6863,
      "suburb": 6864,
      "borrow": 6865,
      "conserv": 6866,
      "nights": 6867,
      "bold": 6868,
      "messages": 6869,
      "selfish": 6870,
      "2002": 6871,
      "occurs": 6872,
      "projects": 6873,
      "university": 6874,
      "cardboard": 6875,
      "vulner": 6876,
      "increasingly": 6877,
      "associated": 6878,
      "dropped": 6879,
      "inevitable": 6880,
      "korean": 6881,
      "exercise": 6882,
      "toilet": 6883,
      "falk": 6884,
      "han": 6885,
      "hire": 6886,
      "josh": 6887,
      "lap": 6888,
      "mate": 6889,
      "tad": 6890,
      "voc": 6891,
      "##kind": 6892,
      "##onse": 6893,
      "sopr": 6894,
      "##ume": 6895,
      "##ibl": 6896,
      "creation": 6897,
      "drags": 6898,
      "assault": 6899,
      "typically": 6900,
      "politic": 6901,
      "silence": 6902,
      "mistaken": 6903,
      "acceptable": 6904,
      "luckily": 6905,
      "bleak": 6906,
      "identify": 6907,
      "torment": 6908,
      "replace": 6909,
      "jesse": 6910,
      "##iosity": 6911,
      "bakshi": 6912,
      "resolution": 6913,
      "sophisticated": 6914,
      "dawson": 6915,
      "reynolds": 6916,
      "bay": 6917,
      "ginger": 6918,
      "hank": 6919,
      "nuclear": 6920,
      "##cut": 6921,
      "##len": 6922,
      "stir": 6923,
      "stead": 6924,
      "shining": 6925,
      "selling": 6926,
      "butch": 6927,
      "twin": 6928,
      "worker": 6929,
      "gotta": 6930,
      "handful": 6931,
      "explod": 6932,
      "advance": 6933,
      "yester": 6934,
      "davies": 6935,
      "thrills": 6936,
      "spirited": 6937,
      "1980s": 6938,
      "mcg": 6939,
      "ambitious": 6940,
      "depression": 6941,
      "temper": 6942,
      "investigation": 6943,
      "splatter": 6944,
      "matthew": 6945,
      "outrageous": 6946,
      "strictly": 6947,
      "brilliance": 6948,
      "35": 6949,
      "hollow": 6950,
      "##tw": 6951,
      "##iors": 6952,
      "##nes": 6953,
      "##cil": 6954,
      "##orem": 6955,
      "##ingu": 6956,
      "select": 6957,
      "allowing": 6958,
      "timeless": 6959,
      "afterwards": 6960,
      "beings": 6961,
      "slim": 6962,
      "struck": 6963,
      "evident": 6964,
      "termin": 6965,
      "marc": 6966,
      "reluct": 6967,
      "persona": 6968,
      "instantly": 6969,
      "##entioned": 6970,
      "worthless": 6971,
      "breasts": 6972,
      "joey": 6973,
      "estate": 6974,
      "convol": 6975,
      "cruise": 6976,
      "continued": 6977,
      "insulting": 6978,
      "digital": 6979,
      "venge": 6980,
      "kidnapped": 6981,
      "shirt": 6982,
      "fifteen": 6983,
      "overlooked": 6984,
      "jamie": 6985,
      "brosnan": 6986,
      "disease": 6987,
      "bone": 6988,
      "kay": 6989,
      "pushed": 6990,
      "sg": 6991,
      "size": 6992,
      "tail": 6993,
      "##iere": 6994,
      "##hold": 6995,
      "##xon": 6996,
      "##erning": 6997,
      "##orthy": 6998,
      "ingen": 6999,
      "##oven": 7000,
      "unple": 7001,
      "fever": 7002,
      "quar": 7003,
      "prejud": 7004,
      "partly": 7005,
      "##ifting": 7006,
      "insist": 7007,
      "artific": 7008,
      "creators": 7009,
      "norman": 7010,
      "pleased": 7011,
      "distant": 7012,
      "sidekick": 7013,
      "importantly": 7014,
      "bullet": 7015,
      "competition": 7016,
      "##works": 7017,
      "sacrifice": 7018,
      "assassin": 7019,
      "presumably": 7020,
      "superficial": 7021,
      "tremendous": 7022,
      "kudos": 7023,
      "margaret": 7024,
      "inaccur": 7025,
      "akshay": 7026,
      "apr": 7027,
      "cia": 7028,
      "gil": 7029,
      "od": 7030,
      "rig": 7031,
      "wack": 7032,
      "##now": 7033,
      "##ller": 7034,
      "##anny": 7035,
      "beer": 7036,
      "rein": 7037,
      "##ower": 7038,
      "shah": 7039,
      "##urai": 7040,
      "abc": 7041,
      "##agin": 7042,
      "##mann": 7043,
      "blob": 7044,
      "aforem": 7045,
      "precise": 7046,
      "realise": 7047,
      "appr": 7048,
      "appalling": 7049,
      "farce": 7050,
      "wondered": 7051,
      "glorious": 7052,
      "menacing": 7053,
      "talked": 7054,
      "uniform": 7055,
      "buried": 7056,
      "returning": 7057,
      "##shine": 7058,
      "boxing": 7059,
      "flawless": 7060,
      "superbly": 7061,
      "raped": 7062,
      "arrested": 7063,
      "lifesty": 7064,
      "temple": 7065,
      "threatening": 7066,
      "drunken": 7067,
      "individuals": 7068,
      "australia": 7069,
      "incompet": 7070,
      "photographed": 7071,
      "exaggerated": 7072,
      "conspiracy": 7073,
      "eccentric": 7074,
      "corpse": 7075,
      "aforementioned": 7076,
      "cag": 7077,
      "jun": 7078,
      "rive": 7079,
      "##iation": 7080,
      "##iders": 7081,
      "doors": 7082,
      "dire": 7083,
      "##eryl": 7084,
      "##orted": 7085,
      "##igan": 7086,
      "guide": 7087,
      "slick": 7088,
      "##aze": 7089,
      "wonders": 7090,
      "coach": 7091,
      "corb": 7092,
      "drivel": 7093,
      "admire": 7094,
      "listed": 7095,
      "samurai": 7096,
      "narrator": 7097,
      "jumping": 7098,
      "regardless": 7099,
      "##world": 7100,
      "highlights": 7101,
      "frustrated": 7102,
      "ticket": 7103,
      "liberal": 7104,
      "mitchell": 7105,
      "gandhi": 7106,
      "jealous": 7107,
      "repetitive": 7108,
      "nurse": 7109,
      "pink": 7110,
      "##mons": 7111,
      "##icop": 7112,
      "##ado": 7113,
      "shout": 7114,
      "##cend": 7115,
      "##ummer": 7116,
      "characterization": 7117,
      "horrors": 7118,
      "stress": 7119,
      "empire": 7120,
      "trap": 7121,
      "helicop": 7122,
      "craig": 7123,
      "generous": 7124,
      "curiosity": 7125,
      "planning": 7126,
      "pleasantly": 7127,
      "beaten": 7128,
      "bullets": 7129,
      "rapid": 7130,
      "bucks": 7131,
      "electric": 7132,
      "achievement": 7133,
      "accomplished": 7134,
      "miserably": 7135,
      "piano": 7136,
      "spooky": 7137,
      "throat": 7138,
      "cagney": 7139,
      "nod": 7140,
      "oce": 7141,
      "##of": 7142,
      "##uing": 7143,
      "##oric": 7144,
      "##icient": 7145,
      "chain": 7146,
      "notes": 7147,
      "##ola": 7148,
      "conqu": 7149,
      "clues": 7150,
      "perry": 7151,
      "wells": 7152,
      "precious": 7153,
      "poll": 7154,
      "accused": 7155,
      "craven": 7156,
      "drac": 7157,
      "cameron": 7158,
      "spoiled": 7159,
      "picking": 7160,
      "marks": 7161,
      "##unky": 7162,
      "goldberg": 7163,
      "attracted": 7164,
      "alexander": 7165,
      "argument": 7166,
      "ironically": 7167,
      "consequences": 7168,
      "francisco": 7169,
      "laurel": 7170,
      "uninspired": 7171,
      "territory": 7172,
      "unpleasant": 7173,
      "dict": 7174,
      "fx": 7175,
      "foul": 7176,
      "hmm": 7177,
      "kin": 7178,
      "##rich": 7179,
      "##othing": 7180,
      "staff": 7181,
      "anal": 7182,
      "##keys": 7183,
      "wend": 7184,
      "unm": 7185,
      "##inder": 7186,
      "watches": 7187,
      "muse": 7188,
      "blows": 7189,
      "prev": 7190,
      "offs": 7191,
      "resur": 7192,
      "emily": 7193,
      "turner": 7194,
      "indians": 7195,
      "##awa": 7196,
      "shortly": 7197,
      "morality": 7198,
      "modesty": 7199,
      "duck": 7200,
      "opposed": 7201,
      "20th": 7202,
      "slightest": 7203,
      "##pses": 7204,
      "response": 7205,
      "logical": 7206,
      "souls": 7207,
      "revealing": 7208,
      "hatred": 7209,
      "melodramatic": 7210,
      "gradu": 7211,
      "motivation": 7212,
      "ellen": 7213,
      "psychiatrist": 7214,
      "manhattan": 7215,
      "superhero": 7216,
      "gw": 7217,
      "ire": 7218,
      "mast": 7219,
      "##rain": 7220,
      "##rate": 7221,
      "##rics": 7222,
      "shoes": 7223,
      "suits": 7224,
      "saf": 7225,
      "cared": 7226,
      "directorial": 7227,
      "compassion": 7228,
      "titled": 7229,
      "lacked": 7230,
      "duo": 7231,
      "documentaries": 7232,
      "pulling": 7233,
      "subplot": 7234,
      "pulp": 7235,
      "captivating": 7236,
      "installment": 7237,
      "felix": 7238,
      "subsequent": 7239,
      "kitchen": 7240,
      "convoluted": 7241,
      "dracula": 7242,
      "ape": 7243,
      "dum": 7244,
      "ought": 7245,
      "tie": 7246,
      "tiger": 7247,
      "##lan": 7248,
      "##hand": 7249,
      "##isions": 7250,
      "##lle": 7251,
      "rever": 7252,
      "anch": 7253,
      "##oops": 7254,
      "scot": 7255,
      "##ortion": 7256,
      "pear": 7257,
      "peak": 7258,
      "horrid": 7259,
      "psychotic": 7260,
      "futuristic": 7261,
      "ignored": 7262,
      "candid": 7263,
      "intrigued": 7264,
      "remaining": 7265,
      "aimed": 7266,
      "unwatch": 7267,
      "waters": 7268,
      "conceived": 7269,
      "overdone": 7270,
      "warrior": 7271,
      "forbidden": 7272,
      "wannabe": 7273,
      "fist": 7274,
      "gyp": 7275,
      "holly": 7276,
      "##fun": 7277,
      "##lk": 7278,
      "##bal": 7279,
      "##inn": 7280,
      "##atisf": 7281,
      "##owed": 7282,
      "seed": 7283,
      "chill": 7284,
      "notably": 7285,
      "worried": 7286,
      "##aude": 7287,
      "##agan": 7288,
      "##quel": 7289,
      "instit": 7290,
      "scripted": 7291,
      "reasonably": 7292,
      "fancy": 7293,
      "failing": 7294,
      "satir": 7295,
      "2004": 7296,
      "bene": 7297,
      "paulie": 7298,
      "verhoe": 7299,
      "scientific": 7300,
      "smoke": 7301,
      "repeatedly": 7302,
      "tunes": 7303,
      "obscure": 7304,
      "elderly": 7305,
      "restaurant": 7306,
      "gimm": 7307,
      "verhoeven": 7308,
      "fog": 7309,
      "gif": 7310,
      "nas": 7311,
      "pushing": 7312,
      "##tv": 7313,
      "##ucing": 7314,
      "##pin": 7315,
      "whale": 7316,
      "supre": 7317,
      "##estic": 7318,
      "outcome": 7319,
      "timothy": 7320,
      "spider": 7321,
      "crook": 7322,
      "pretend": 7323,
      "musc": 7324,
      "marl": 7325,
      "relent": 7326,
      "##ashes": 7327,
      "acclaim": 7328,
      "explore": 7329,
      "glenn": 7330,
      "misses": 7331,
      "providing": 7332,
      "reduced": 7333,
      "distance": 7334,
      "combat": 7335,
      "juliet": 7336,
      "undoub": 7337,
      "draws": 7338,
      "idiots": 7339,
      "panic": 7340,
      "loosely": 7341,
      "discussion": 7342,
      "gradually": 7343,
      "symbolism": 7344,
      "exhib": 7345,
      "dignity": 7346,
      "griffith": 7347,
      "hysterical": 7348,
      "elaborate": 7349,
      "giallo": 7350,
      "soviet": 7351,
      "cig": 7352,
      "cried": 7353,
      "dave": 7354,
      "ta": 7355,
      "##aurs": 7356,
      "##rd": 7357,
      "reh": 7358,
      "reel": 7359,
      "reli": 7360,
      "sept": 7361,
      "##unning": 7362,
      "##inda": 7363,
      "intent": 7364,
      "function": 7365,
      "##anski": 7366,
      "slave": 7367,
      "sloppy": 7368,
      "stiller": 7369,
      "screams": 7370,
      "settle": 7371,
      "warren": 7372,
      "march": 7373,
      "phr": 7374,
      "reasonable": 7375,
      "annie": 7376,
      "morris": 7377,
      "romero": 7378,
      "darker": 7379,
      "walker": 7380,
      "2003": 7381,
      "returned": 7382,
      "exposed": 7383,
      "sticks": 7384,
      "sunshine": 7385,
      "juven": 7386,
      "shadows": 7387,
      "carrie": 7388,
      "bathroom": 7389,
      "translation": 7390,
      "kenneth": 7391,
      "sneak": 7392,
      "gimmick": 7393,
      "dish": 7394,
      "jazz": 7395,
      "lamp": 7396,
      "##gent": 7397,
      "##bird": 7398,
      "##entine": 7399,
      "chor": 7400,
      "chest": 7401,
      "areas": 7402,
      "##istan": 7403,
      "imper": 7404,
      "blake": 7405,
      "##weight": 7406,
      "holy": 7407,
      "param": 7408,
      "absence": 7409,
      "danes": 7410,
      "dancers": 7411,
      "imagined": 7412,
      "discovery": 7413,
      "heroic": 7414,
      "purple": 7415,
      "contrary": 7416,
      "rocket": 7417,
      "wallace": 7418,
      "observ": 7419,
      "uneven": 7420,
      "1930s": 7421,
      "unbelievably": 7422,
      "karen": 7423,
      "rambo": 7424,
      "berg": 7425,
      "tortured": 7426,
      "arrive": 7427,
      "defend": 7428,
      "commercials": 7429,
      "hypn": 7430,
      "altman": 7431,
      "birds": 7432,
      "divorce": 7433,
      "unbearable": 7434,
      "yesterday": 7435,
      "astr": 7436,
      "woo": 7437,
      "##aled": 7438,
      "stole": 7439,
      "movements": 7440,
      "exter": 7441,
      "extended": 7442,
      "##udge": 7443,
      "crush": 7444,
      "twelve": 7445,
      "donna": 7446,
      "prec": 7447,
      "differences": 7448,
      "eyre": 7449,
      "concerning": 7450,
      "##onym": 7451,
      "infer": 7452,
      "merit": 7453,
      "improved": 7454,
      "require": 7455,
      "reached": 7456,
      "mildred": 7457,
      "royal": 7458,
      "synops": 7459,
      "choreography": 7460,
      "##breaking": 7461,
      "landscape": 7462,
      "astonishing": 7463,
      "ireland": 7464,
      "bite": 7465,
      "dah": 7466,
      "daring": 7467,
      "fart": 7468,
      "nause": 7469,
      "nerv": 7470,
      "punk": 7471,
      "rud": 7472,
      "roth": 7473,
      "rabb": 7474,
      "##iar": 7475,
      "##ees": 7476,
      "##ji": 7477,
      "bron": 7478,
      "anx": 7479,
      "conve": 7480,
      "anyways": 7481,
      "overrated": 7482,
      "blast": 7483,
      "displays": 7484,
      "awa": 7485,
      "confir": 7486,
      "styles": 7487,
      "collabor": 7488,
      "snake": 7489,
      "tommy": 7490,
      "swear": 7491,
      "illeg": 7492,
      "secrets": 7493,
      "builds": 7494,
      "existed": 7495,
      "winds": 7496,
      "burned": 7497,
      "drawing": 7498,
      "affected": 7499,
      "nazis": 7500,
      "occurred": 7501,
      "fulci": 7502,
      "involvement": 7503,
      "inhabit": 7504,
      "kapoor": 7505,
      "newspaper": 7506,
      "##rehensible": 7507,
      "dill": 7508,
      "greek": 7509,
      "hers": 7510,
      "wis": 7511,
      "##ilted": 7512,
      "##urance": 7513,
      "##rial": 7514,
      "##olves": 7515,
      "blunt": 7516,
      "genres": 7517,
      "apes": 7518,
      "apolog": 7519,
      "##atingly": 7520,
      "terry": 7521,
      "enterpr": 7522,
      "audio": 7523,
      "demands": 7524,
      "popc": 7525,
      "devast": 7526,
      "delicious": 7527,
      "antics": 7528,
      "hamilton": 7529,
      "contained": 7530,
      "beatty": 7531,
      "##opping": 7532,
      "machines": 7533,
      "unsett": 7534,
      "sales": 7535,
      "blend": 7536,
      "recognized": 7537,
      "ranks": 7538,
      "currently": 7539,
      "argue": 7540,
      "resembles": 7541,
      "population": 7542,
      "nicholson": 7543,
      "global": 7544,
      "##ffee": 7545,
      "adequate": 7546,
      "undoubted": 7547,
      "50s": 7548,
      "dy": 7549,
      "fing": 7550,
      "pant": 7551,
      "ts": 7552,
      "tame": 7553,
      "vall": 7554,
      "##iy": 7555,
      "##sp": 7556,
      "##jo": 7557,
      "threw": 7558,
      "##erved": 7559,
      "##asion": 7560,
      "chains": 7561,
      "##rah": 7562,
      "neo": 7563,
      "enchant": 7564,
      "##igo": 7565,
      "##ogether": 7566,
      "adoles": 7567,
      "enjoys": 7568,
      "trio": 7569,
      "harder": 7570,
      "insert": 7571,
      "steam": 7572,
      "##isms": 7573,
      "unfair": 7574,
      "sadness": 7575,
      "sadistic": 7576,
      "centered": 7577,
      "ridiculously": 7578,
      "lawrence": 7579,
      "cats": 7580,
      "meaningless": 7581,
      "bedroom": 7582,
      "receive": 7583,
      "sarc": 7584,
      "investigate": 7585,
      "optim": 7586,
      "altogether": 7587,
      "explosion": 7588,
      "dutch": 7589,
      "proceedings": 7590,
      "ruthless": 7591,
      "dynamic": 7592,
      "journalist": 7593,
      "encoura": 7594,
      "swedish": 7595,
      "seventies": 7596,
      "innovative": 7597,
      "pokemon": 7598,
      "pseudo": 7599,
      "website": 7600,
      "popcorn": 7601,
      "fighter": 7602,
      "gor": 7603,
      "nort": 7604,
      "rage": 7605,
      "rif": 7606,
      "thugs": 7607,
      "brady": 7608,
      "beats": 7609,
      "befriend": 7610,
      "staged": 7611,
      "##idy": 7612,
      "suited": 7613,
      "aging": 7614,
      "flop": 7615,
      "generic": 7616,
      "humili": 7617,
      "misunder": 7618,
      "composed": 7619,
      "robots": 7620,
      "dramat": 7621,
      "cameras": 7622,
      "madonna": 7623,
      "suspicious": 7624,
      "palt": 7625,
      "closet": 7626,
      "respond": 7627,
      "intrigue": 7628,
      "exploit": 7629,
      "voight": 7630,
      "fonda": 7631,
      "dinosaurs": 7632,
      "##original": 7633,
      "crocod": 7634,
      "atlantis": 7635,
      "synopsis": 7636,
      "2nd": 7637,
      "ease": 7638,
      "kum": 7639,
      "nem": 7640,
      "nun": 7641,
      "rural": 7642,
      "##just": 7643,
      "##edict": 7644,
      "##itudes": 7645,
      "brun": 7646,
      "brains": 7647,
      "##icity": 7648,
      "stard": 7649,
      "##ulf": 7650,
      "##ulate": 7651,
      "comfortable": 7652,
      "neur": 7653,
      "clothing": 7654,
      "grain": 7655,
      "##ionship": 7656,
      "newcom": 7657,
      "coast": 7658,
      "dialogues": 7659,
      "engaged": 7660,
      "##lands": 7661,
      "barg": 7662,
      "transport": 7663,
      "devoted": 7664,
      "2007": 7665,
      "alexand": 7666,
      "defeat": 7667,
      "escaped": 7668,
      "cellul": 7669,
      "conversations": 7670,
      "mountains": 7671,
      "prostitute": 7672,
      "mesmer": 7673,
      "orchest": 7674,
      "juvenile": 7675,
      "ec": 7676,
      "ew": 7677,
      "houses": 7678,
      "ross": 7679,
      "sme": 7680,
      "vib": 7681,
      "wag": 7682,
      "##end": 7683,
      "##ean": 7684,
      "##zilla": 7685,
      "##llie": 7686,
      "whoop": 7687,
      "shine": 7688,
      "lips": 7689,
      "exotic": 7690,
      "orders": 7691,
      "amuse": 7692,
      "##place": 7693,
      "sail": 7694,
      "aggress": 7695,
      "offering": 7696,
      "warming": 7697,
      "edie": 7698,
      "kidding": 7699,
      "coherent": 7700,
      "coffee": 7701,
      "imperson": 7702,
      "versus": 7703,
      "buddies": 7704,
      "excru": 7705,
      "murderous": 7706,
      "antw": 7707,
      "cinematographer": 7708,
      "staying": 7709,
      "laws": 7710,
      "nearby": 7711,
      "odds": 7712,
      "latin": 7713,
      "1930": 7714,
      "conventional": 7715,
      "immig": 7716,
      "neglect": 7717,
      "label": 7718,
      "explosions": 7719,
      "philosophy": 7720,
      "cuba": 7721,
      "lemmon": 7722,
      "overwhelming": 7723,
      "cringe": 7724,
      "acknow": 7725,
      "excruci": 7726,
      "banned": 7727,
      "hul": 7728,
      "hbo": 7729,
      "##nel": 7730,
      "##bie": 7731,
      "toys": 7732,
      "inapp": 7733,
      "abilities": 7734,
      "##olph": 7735,
      "##ptic": 7736,
      "blowing": 7737,
      "cary": 7738,
      "fluff": 7739,
      "removed": 7740,
      "191": 7741,
      "recover": 7742,
      "producing": 7743,
      "instant": 7744,
      "liking": 7745,
      "possessed": 7746,
      "oppress": 7747,
      "groups": 7748,
      "marty": 7749,
      "errors": 7750,
      "damage": 7751,
      "detailed": 7752,
      "homer": 7753,
      "palma": 7754,
      "disturbed": 7755,
      "nightmares": 7756,
      "implausible": 7757,
      "unintentional": 7758,
      "kennedy": 7759,
      "mickey": 7760,
      "mummy": 7761,
      "yellow": 7762,
      "deliberately": 7763,
      "celluloid": 7764,
      "cunning": 7765,
      "dating": 7766,
      "tires": 7767,
      "##gir": 7768,
      "##va": 7769,
      "##hem": 7770,
      "##´s": 7771,
      "##inent": 7772,
      "##itar": 7773,
      "##abh": 7774,
      "leo": 7775,
      "clo": 7776,
      "##iously": 7777,
      "spare": 7778,
      "##cia": 7779,
      "adul": 7780,
      "interrupt": 7781,
      "relies": 7782,
      "careers": 7783,
      "possibility": 7784,
      "harvey": 7785,
      "masters": 7786,
      "solo": 7787,
      "airpl": 7788,
      "illog": 7789,
      "subjects": 7790,
      "1996": 7791,
      "survival": 7792,
      "causing": 7793,
      "daddy": 7794,
      "tracks": 7795,
      "officers": 7796,
      "explaining": 7797,
      "persu": 7798,
      "jeffrey": 7799,
      "influenced": 7800,
      "resemblance": 7801,
      "vulgar": 7802,
      "distracting": 7803,
      "florida": 7804,
      "metaphor": 7805,
      "olivier": 7806,
      "ingredients": 7807,
      "unwatchable": 7808,
      "undoubtedly": 7809,
      "90s": 7810,
      "finger": 7811,
      "hug": 7812,
      "jar": 7813,
      "lun": 7814,
      "nap": 7815,
      "pars": 7816,
      "pays": 7817,
      "pale": 7818,
      "##uable": 7819,
      "##erk": 7820,
      "##ications": 7821,
      "retain": 7822,
      "ath": 7823,
      "##umsy": 7824,
      "lean": 7825,
      "##aux": 7826,
      "goodness": 7827,
      "clumsy": 7828,
      "##ayson": 7829,
      "blues": 7830,
      "disj": 7831,
      "funeral": 7832,
      "awake": 7833,
      "recon": 7834,
      "keen": 7835,
      "highest": 7836,
      "classes": 7837,
      "explored": 7838,
      "glamor": 7839,
      "polanski": 7840,
      "skull": 7841,
      "passes": 7842,
      "props": 7843,
      "garner": 7844,
      "politically": 7845,
      "##ettes": 7846,
      "focusing": 7847,
      "signs": 7848,
      "catches": 7849,
      "furthermore": 7850,
      "cryst": 7851,
      "satisfied": 7852,
      "succeeded": 7853,
      "primary": 7854,
      "hideous": 7855,
      "brooklyn": 7856,
      "duty": 7857,
      "colonel": 7858,
      "scheme": 7859,
      "wizard": 7860,
      "bump": 7861,
      "hog": 7862,
      "kol": 7863,
      "wives": 7864,
      "##lag": 7865,
      "##hill": 7866,
      "stack": 7867,
      "stabb": 7868,
      "##emark": 7869,
      "maggie": 7870,
      "outer": 7871,
      "enem": 7872,
      "measure": 7873,
      "arist": 7874,
      "pegg": 7875,
      "flies": 7876,
      "##ipes": 7877,
      "##ocative": 7878,
      "decisions": 7879,
      "##xture": 7880,
      "secondly": 7881,
      "models": 7882,
      "winters": 7883,
      "smaller": 7884,
      "godzilla": 7885,
      "repuls": 7886,
      "trees": 7887,
      "spirits": 7888,
      "sentence": 7889,
      "1999": 7890,
      "1960": 7891,
      "mysteries": 7892,
      "remarkably": 7893,
      "travels": 7894,
      "affection": 7895,
      "linda": 7896,
      "arab": 7897,
      "chaos": 7898,
      "financial": 7899,
      "ocean": 7900,
      "aug": 7901,
      "egg": 7902,
      "gest": 7903,
      "hates": 7904,
      "len": 7905,
      "rook": 7906,
      "##ecess": 7907,
      "##cingly": 7908,
      "##iner": 7909,
      "##atures": 7910,
      "##isons": 7911,
      "brav": 7912,
      "rebel": 7913,
      "rebell": 7914,
      "ster": 7915,
      "forty": 7916,
      "notion": 7917,
      "mail": 7918,
      "clay": 7919,
      "amy": 7920,
      "endings": 7921,
      "flir": 7922,
      "characteristic": 7923,
      "esp": 7924,
      "thoughtful": 7925,
      "chronic": 7926,
      "unfolds": 7927,
      "portion": 7928,
      "##ologue": 7929,
      "fantas": 7930,
      "streep": 7931,
      "predecess": 7932,
      "devoid": 7933,
      "destiny": 7934,
      "surviving": 7935,
      "companion": 7936,
      "fundam": 7937,
      "communist": 7938,
      "desperation": 7939,
      "recorded": 7940,
      "berlin": 7941,
      "primarily": 7942,
      "frustration": 7943,
      "consistently": 7944,
      "stinker": 7945,
      "lyrics": 7946,
      "choreograph": 7947,
      "yawn": 7948,
      "offended": 7949,
      "doomed": 7950,
      "blatant": 7951,
      "grinch": 7952,
      "principal": 7953,
      "lifestyle": 7954,
      "beneath": 7955,
      "enterprise": 7956,
      "disjointed": 7957,
      "3rd": 7958,
      "bent": 7959,
      "easter": 7960,
      "egy": 7961,
      "elli": 7962,
      "sore": 7963,
      "##crow": 7964,
      "##ros": 7965,
      "##gers": 7966,
      "##atoes": 7967,
      "##ovich": 7968,
      "##etically": 7969,
      "alert": 7970,
      "diane": 7971,
      "##umble": 7972,
      "##obi": 7973,
      "impe": 7974,
      "user": 7975,
      "disli": 7976,
      "directs": 7977,
      "performer": 7978,
      "cheating": 7979,
      "senseless": 7980,
      "dances": 7981,
      "curs": 7982,
      "##enna": 7983,
      "motives": 7984,
      "garbo": 7985,
      "countryside": 7986,
      "grandfather": 7987,
      "hyper": 7988,
      "julian": 7989,
      "trademark": 7990,
      "immort": 7991,
      "terrorist": 7992,
      "mixture": 7993,
      "celebrity": 7994,
      "montage": 7995,
      "circle": 7996,
      "horrifying": 7997,
      "dozens": 7998,
      "revolutionary": 7999,
      "hints": 8000,
      "shirley": 8001,
      "fetched": 8002,
      "shelf": 8003,
      "wrestling": 8004,
      "enormous": 8005,
      "artificial": 8006,
      "cigar": 8007,
      "inferior": 8008,
      "nervous": 8009,
      "enemies": 8010,
      "egypt": 8011,
      "dys": 8012,
      "jol": 8013,
      "uwe": 8014,
      "wet": 8015,
      "##lers": 8016,
      "##hr": 8017,
      "##ko": 8018,
      "topless": 8019,
      "##ulated": 8020,
      "socc": 8021,
      "depend": 8022,
      "macy": 8023,
      "orph": 8024,
      "drops": 8025,
      "mayor": 8026,
      "apoc": 8027,
      "##acies": 8028,
      "sett": 8029,
      "obtain": 8030,
      "hardcore": 8031,
      "acid": 8032,
      "housew": 8033,
      "lund": 8034,
      "wax": 8035,
      "hopeless": 8036,
      "painted": 8037,
      "developing": 8038,
      "melting": 8039,
      "##heim": 8040,
      "avoided": 8041,
      "judging": 8042,
      "calm": 8043,
      "trailers": 8044,
      "urge": 8045,
      "subtlety": 8046,
      "reaches": 8047,
      "traveling": 8048,
      "surfing": 8049,
      "eighties": 8050,
      "describes": 8051,
      "domino": 8052,
      "gigg": 8053,
      "dismiss": 8054,
      "benefit": 8055,
      "stellar": 8056,
      "immensely": 8057,
      "unsettling": 8058,
      "cure": 8059,
      "eri": 8060,
      "gib": 8061,
      "jed": 8062,
      "khan": 8063,
      "niro": 8064,
      "pic": 8065,
      "ties": 8066,
      "wig": 8067,
      "##yon": 8068,
      "##ded": 8069,
      "##oned": 8070,
      "whim": 8071,
      "##utter": 8072,
      "##adine": 8073,
      "##cha": 8074,
      "##idal": 8075,
      "##ami": 8076,
      "##ularly": 8077,
      "planned": 8078,
      "##arts": 8079,
      "diana": 8080,
      "timon": 8081,
      "amanda": 8082,
      "adorable": 8083,
      "##izable": 8084,
      "recru": 8085,
      "edit": 8086,
      "wont": 8087,
      "contrad": 8088,
      "repub": 8089,
      "technic": 8090,
      "##issa": 8091,
      "gerard": 8092,
      "##etti": 8093,
      "matches": 8094,
      "troubles": 8095,
      "backgrounds": 8096,
      "blew": 8097,
      "angeles": 8098,
      "satisfact": 8099,
      "practice": 8100,
      "authority": 8101,
      "scroo": 8102,
      "simplistic": 8103,
      "hartley": 8104,
      "specifically": 8105,
      "miserable": 8106,
      "emphasis": 8107,
      "saga": 8108,
      "survivors": 8109,
      "outfit": 8110,
      "iraq": 8111,
      "april": 8112,
      "illogical": 8113,
      "soccer": 8114,
      "cd": 8115,
      "dazz": 8116,
      "faster": 8117,
      "ling": 8118,
      "ny": 8119,
      "##yll": 8120,
      "##uity": 8121,
      "##ctions": 8122,
      "##ieces": 8123,
      "##adle": 8124,
      "assem": 8125,
      "analy": 8126,
      "chess": 8127,
      "lip": 8128,
      "##esth": 8129,
      "##pel": 8130,
      "##abel": 8131,
      "neph": 8132,
      "##ounding": 8133,
      "amit": 8134,
      "##agues": 8135,
      "peoples": 8136,
      "awak": 8137,
      "simil": 8138,
      "mario": 8139,
      "steel": 8140,
      "menace": 8141,
      "forms": 8142,
      "breed": 8143,
      "useful": 8144,
      "transition": 8145,
      "towns": 8146,
      "##arthur": 8147,
      "prompt": 8148,
      "commented": 8149,
      "babe": 8150,
      "illness": 8151,
      "util": 8152,
      "judy": 8153,
      "claimed": 8154,
      "1940": 8155,
      "dickens": 8156,
      "jewel": 8157,
      "loads": 8158,
      "earned": 8159,
      "corruption": 8160,
      "lumet": 8161,
      "dinosaur": 8162,
      "transformation": 8163,
      "##donald": 8164,
      "resurrect": 8165,
      "cards": 8166,
      "ears": 8167,
      "lena": 8168,
      "rene": 8169,
      "wt": 8170,
      "##lam": 8171,
      "##gren": 8172,
      "##inity": 8173,
      "brig": 8174,
      "##otte": 8175,
      "enlight": 8176,
      "##atched": 8177,
      "##igner": 8178,
      "endure": 8179,
      "serge": 8180,
      "lasted": 8181,
      "parano": 8182,
      "##aneously": 8183,
      "racial": 8184,
      "guessed": 8185,
      "psychopath": 8186,
      "##enger": 8187,
      "rooms": 8188,
      "weakest": 8189,
      "honesty": 8190,
      "introduces": 8191,
      "limits": 8192,
      "hurts": 8193,
      "trashy": 8194,
      "depressed": 8195,
      "sellers": 8196,
      "passionate": 8197,
      "jonathan": 8198,
      "disappeared": 8199,
      "displayed": 8200,
      "interaction": 8201,
      "philosophical": 8202,
      "dedicated": 8203,
      "arrogant": 8204,
      "##ophobic": 8205,
      "elephant": 8206,
      "riveting": 8207,
      "chorus": 8208,
      "bergman": 8209,
      "choreographed": 8210,
      "republic": 8211,
      "nephew": 8212,
      "22": 8213,
      "cake": 8214,
      "eli": 8215,
      "icon": 8216,
      "rag": 8217,
      "tank": 8218,
      "wore": 8219,
      "##mi": 8220,
      "##orc": 8221,
      "whis": 8222,
      "repress": 8223,
      "sho": 8224,
      "shap": 8225,
      "shake": 8226,
      "chased": 8227,
      "liz": 8228,
      "prize": 8229,
      "wendy": 8230,
      "justify": 8231,
      "overt": 8232,
      "quotes": 8233,
      "adams": 8234,
      "realizing": 8235,
      "compens": 8236,
      "monkeys": 8237,
      "pacif": 8238,
      "possibilities": 8239,
      "##ysis": 8240,
      "hopper": 8241,
      "similarities": 8242,
      "unsatisf": 8243,
      "macarthur": 8244,
      "kicked": 8245,
      "stereotype": 8246,
      "sandra": 8247,
      "moody": 8248,
      "porno": 8249,
      "represented": 8250,
      "voiced": 8251,
      "miy": 8252,
      "##aaaa": 8253,
      "buffs": 8254,
      "scarecrow": 8255,
      "formulaic": 8256,
      "ethnic": 8257,
      "charlotte": 8258,
      "nomination": 8259,
      "isolated": 8260,
      "abysmal": 8261,
      "safety": 8262,
      "pearl": 8263,
      "similarly": 8264,
      "cu": 8265,
      "gym": 8266,
      "ka": 8267,
      "rit": 8268,
      "##fight": 8269,
      "##ele": 8270,
      "##bly": 8271,
      "##bod": 8272,
      "##orney": 8273,
      "inane": 8274,
      "button": 8275,
      "chave": 8276,
      "sung": 8277,
      "scope": 8278,
      "unse": 8279,
      "trained": 8280,
      "myr": 8281,
      "myers": 8282,
      "thru": 8283,
      "##pled": 8284,
      "##assy": 8285,
      "##peror": 8286,
      "recyc": 8287,
      "newly": 8288,
      "emperor": 8289,
      "misle": 8290,
      "tribe": 8291,
      "sounding": 8292,
      "defense": 8293,
      "christy": 8294,
      "understandable": 8295,
      "considerable": 8296,
      "snl": 8297,
      "pattern": 8298,
      "promised": 8299,
      "kingdom": 8300,
      "campbell": 8301,
      "treats": 8302,
      "1972": 8303,
      "improve": 8304,
      "casual": 8305,
      "dimension": 8306,
      "bonus": 8307,
      "faults": 8308,
      "stinks": 8309,
      "education": 8310,
      "rotten": 8311,
      "solely": 8312,
      "swimming": 8313,
      "inventive": 8314,
      "nostalgic": 8315,
      "puppet": 8316,
      "dalton": 8317,
      "dolph": 8318,
      "grasp": 8319,
      "conservative": 8320,
      "helicopter": 8321,
      "amitabh": 8322,
      "chavez": 8323,
      "eug": 8324,
      "kent": 8325,
      "kyle": 8326,
      "lately": 8327,
      "mish": 8328,
      "ot": 8329,
      "pour": 8330,
      "##oir": 8331,
      "##vest": 8332,
      "##dow": 8333,
      "##wright": 8334,
      "##book": 8335,
      "##oma": 8336,
      "stilted": 8337,
      "asp": 8338,
      "##verted": 8339,
      "deaf": 8340,
      "##antee": 8341,
      "orson": 8342,
      "mund": 8343,
      "blur": 8344,
      "facing": 8345,
      "poetic": 8346,
      "##ivals": 8347,
      "species": 8348,
      "##acle": 8349,
      "downhill": 8350,
      "comparing": 8351,
      "elimin": 8352,
      "##onscious": 8353,
      "simpson": 8354,
      "##annon": 8355,
      "gender": 8356,
      "peters": 8357,
      "patric": 8358,
      "airport": 8359,
      "photos": 8360,
      "mistress": 8361,
      "claus": 8362,
      "##ivalent": 8363,
      "hyde": 8364,
      "dais": 8365,
      "bleed": 8366,
      "dolls": 8367,
      "embarrassment": 8368,
      "fooled": 8369,
      "foolish": 8370,
      "legal": 8371,
      "coward": 8372,
      "consistent": 8373,
      "contempl": 8374,
      "fleet": 8375,
      "tonight": 8376,
      "aids": 8377,
      "##uddled": 8378,
      "purchase": 8379,
      "agrees": 8380,
      "corporate": 8381,
      "ignorant": 8382,
      "unhappy": 8383,
      "parallel": 8384,
      "##quisite": 8385,
      "museum": 8386,
      "bark": 8387,
      "ollie": 8388,
      "ps": 8389,
      "pants": 8390,
      "sits": 8391,
      "taught": 8392,
      "##tte": 8393,
      "##town": 8394,
      "##iant": 8395,
      "##rina": 8396,
      "##riel": 8397,
      "##uge": 8398,
      "##era": 8399,
      "shan": 8400,
      "##cks": 8401,
      "##astically": 8402,
      "unrel": 8403,
      "armed": 8404,
      "blade": 8405,
      "pretending": 8406,
      "vegas": 8407,
      "attorney": 8408,
      "edgar": 8409,
      "letters": 8410,
      "monot": 8411,
      "gloss": 8412,
      "confidence": 8413,
      "sadd": 8414,
      "waited": 8415,
      "lackl": 8416,
      "namely": 8417,
      "despair": 8418,
      "wished": 8419,
      "1983": 8420,
      "halluc": 8421,
      "reaching": 8422,
      "dirt": 8423,
      "##ropriately": 8424,
      "montana": 8425,
      "stevens": 8426,
      "motivations": 8427,
      "ruby": 8428,
      "rubber": 8429,
      "loren": 8430,
      "applaud": 8431,
      "shelley": 8432,
      "constructed": 8433,
      "fulfill": 8434,
      "unpredict": 8435,
      "stooges": 8436,
      "##function": 8437,
      "tiresome": 8438,
      "kl": 8439,
      "oct": 8440,
      "sill": 8441,
      "tier": 8442,
      "vice": 8443,
      "##iably": 8444,
      "##woman": 8445,
      "##holic": 8446,
      "##stin": 8447,
      "##chi": 8448,
      "##idently": 8449,
      "plight": 8450,
      "commend": 8451,
      "##osis": 8452,
      "divers": 8453,
      "dixon": 8454,
      "upl": 8455,
      "poem": 8456,
      "sappy": 8457,
      "agents": 8458,
      "partners": 8459,
      "writes": 8460,
      "gundam": 8461,
      "flam": 8462,
      "grotes": 8463,
      "joh": 8464,
      "horn": 8465,
      "bela": 8466,
      "incest": 8467,
      "humble": 8468,
      "relation": 8469,
      "schlock": 8470,
      "glim": 8471,
      "staring": 8472,
      "confident": 8473,
      "confron": 8474,
      "engage": 8475,
      "christians": 8476,
      "behave": 8477,
      "irres": 8478,
      "raising": 8479,
      "greg": 8480,
      "buildings": 8481,
      "delivering": 8482,
      "gangsters": 8483,
      "combine": 8484,
      "closest": 8485,
      "ballet": 8486,
      "cleverly": 8487,
      "scarlet": 8488,
      "destroying": 8489,
      "suitable": 8490,
      "raymond": 8491,
      "carradine": 8492,
      "connery": 8493,
      "virginia": 8494,
      "nicol": 8495,
      "miracle": 8496,
      "jenny": 8497,
      "alfred": 8498,
      "vengeance": 8499,
      "paltrow": 8500,
      "crocodile": 8501,
      "aven": 8502,
      "barn": 8503,
      "coc": 8504,
      "cav": 8505,
      "jod": 8506,
      "loos": 8507,
      "rav": 8508,
      "##ih": 8509,
      "##rest": 8510,
      "##vity": 8511,
      "inject": 8512,
      "reck": 8513,
      "stark": 8514,
      "prol": 8515,
      "##raw": 8516,
      "##antino": 8517,
      "##ivable": 8518,
      "flag": 8519,
      "farrell": 8520,
      "reads": 8521,
      "blacks": 8522,
      "couples": 8523,
      "engross": 8524,
      "synd": 8525,
      "waves": 8526,
      "swall": 8527,
      "valuable": 8528,
      "convincingly": 8529,
      "secretly": 8530,
      "climactic": 8531,
      "bands": 8532,
      "jumped": 8533,
      "scottish": 8534,
      "1968": 8535,
      "arrived": 8536,
      "square": 8537,
      "industrial": 8538,
      "conflicts": 8539,
      "civilization": 8540,
      "robinson": 8541,
      "sirk": 8542,
      "alcoholic": 8543,
      "gentleman": 8544,
      "guarantee": 8545,
      "elegant": 8546,
      "september": 8547,
      "airplane": 8548,
      "scrooge": 8549,
      "paranoia": 8550,
      "cyc": 8551,
      "june": 8552,
      "lav": 8553,
      "molly": 8554,
      "nar": 8555,
      "pas": 8556,
      "wret": 8557,
      "wrap": 8558,
      "yok": 8559,
      "##tr": 8560,
      "##eur": 8561,
      "##low": 8562,
      "##mp": 8563,
      "shod": 8564,
      "##ids": 8565,
      "chop": 8566,
      "hav": 8567,
      "sue": 8568,
      "plod": 8569,
      "whats": 8570,
      "closed": 8571,
      "amid": 8572,
      "willis": 8573,
      "spock": 8574,
      "yelling": 8575,
      "grind": 8576,
      "undert": 8577,
      "resident": 8578,
      "surpass": 8579,
      "cheated": 8580,
      "misery": 8581,
      "marion": 8582,
      "audition": 8583,
      "leaders": 8584,
      "exploration": 8585,
      "##rett": 8586,
      "lowest": 8587,
      "creator": 8588,
      "##annah": 8589,
      "pops": 8590,
      "frankenstein": 8591,
      "richardson": 8592,
      "exped": 8593,
      "waitress": 8594,
      "catching": 8595,
      "balls": 8596,
      "1960s": 8597,
      "kicking": 8598,
      "witches": 8599,
      "understated": 8600,
      "ethan": 8601,
      "robbery": 8602,
      "beliefs": 8603,
      "austen": 8604,
      "nicholas": 8605,
      "wrapped": 8606,
      "poetry": 8607,
      "chicago": 8608,
      "lundgren": 8609,
      "lens": 8610,
      "oth": 8611,
      "##lines": 8612,
      "##jay": 8613,
      "##mel": 8614,
      "##ancing": 8615,
      "ingr": 8616,
      "##icism": 8617,
      "##ovsky": 8618,
      "stale": 8619,
      "##eta": 8620,
      "fren": 8621,
      "scores": 8622,
      "abusive": 8623,
      "unst": 8624,
      "intric": 8625,
      "firstly": 8626,
      "grie": 8627,
      "##eps": 8628,
      "desired": 8629,
      "##iped": 8630,
      "traff": 8631,
      "invasion": 8632,
      "blackm": 8633,
      "messed": 8634,
      "richards": 8635,
      "spoke": 8636,
      "greedy": 8637,
      "centers": 8638,
      "##ushi": 8639,
      "construction": 8640,
      "potentially": 8641,
      "photo": 8642,
      "claustr": 8643,
      "questionable": 8644,
      "germans": 8645,
      "survived": 8646,
      "obsess": 8647,
      "catchy": 8648,
      "literature": 8649,
      "designs": 8650,
      "riot": 8651,
      "remarks": 8652,
      "walt": 8653,
      "progresses": 8654,
      "simplicity": 8655,
      "advertising": 8656,
      "nostalgia": 8657,
      "taxi": 8658,
      "bottle": 8659,
      "vulnerable": 8660,
      "junior": 8661,
      "bargain": 8662,
      "75": 8663,
      "darr": 8664,
      "hench": 8665,
      "##oen": 8666,
      "thorn": 8667,
      "##anos": 8668,
      "##omnia": 8669,
      "##leans": 8670,
      "bever": 8671,
      "##stage": 8672,
      "shed": 8673,
      "##alled": 8674,
      "soder": 8675,
      "dee": 8676,
      "mankind": 8677,
      "cloud": 8678,
      "guitar": 8679,
      "joined": 8680,
      "attitudes": 8681,
      "apple": 8682,
      "buzz": 8683,
      "persons": 8684,
      "helm": 8685,
      "careful": 8686,
      "absent": 8687,
      "restored": 8688,
      "experiments": 8689,
      "copies": 8690,
      "alongside": 8691,
      "advise": 8692,
      "advanced": 8693,
      "demented": 8694,
      "hello": 8695,
      "##issance": 8696,
      "louise": 8697,
      "frankie": 8698,
      "mclag": 8699,
      "hunters": 8700,
      "operation": 8701,
      "condem": 8702,
      "recognition": 8703,
      "amounts": 8704,
      "complexity": 8705,
      "brutally": 8706,
      "depicts": 8707,
      "lengthy": 8708,
      "unexpl": 8709,
      "eaten": 8710,
      "chapter": 8711,
      "nerd": 8712,
      "intentionally": 8713,
      "vaguely": 8714,
      "purchased": 8715,
      "irrele": 8716,
      "wandering": 8717,
      "arguably": 8718,
      "gabriel": 8719,
      "bacall": 8720,
      "showcase": 8721,
      "rendition": 8722,
      "phantom": 8723,
      "stallone": 8724,
      "illegal": 8725,
      "inappropriate": 8726,
      "dysfunction": 8727,
      "ritual": 8728,
      "grotesque": 8729,
      "wretched": 8730,
      "bast": 8731,
      "naught": 8732,
      "nuts": 8733,
      "nathan": 8734,
      "rave": 8735,
      "rising": 8736,
      "roof": 8737,
      "uh": 8738,
      "##yers": 8739,
      "##iceless": 8740,
      "##ala": 8741,
      "##ilight": 8742,
      "online": 8743,
      "reid": 8744,
      "reign": 8745,
      "seld": 8746,
      "habit": 8747,
      "##ulation": 8748,
      "degr": 8749,
      "likewise": 8750,
      "##aste": 8751,
      "justin": 8752,
      "unit": 8753,
      "unle": 8754,
      "troops": 8755,
      "intimate": 8756,
      "betty": 8757,
      "quant": 8758,
      "twilight": 8759,
      "poe": 8760,
      "grate": 8761,
      "grayson": 8762,
      "rooney": 8763,
      "minus": 8764,
      "relatives": 8765,
      "edition": 8766,
      "visible": 8767,
      "visits": 8768,
      "drake": 8769,
      "distingu": 8770,
      "bread": 8771,
      "demonic": 8772,
      "petty": 8773,
      "patients": 8774,
      "opinions": 8775,
      "##hears": 8776,
      "descent": 8777,
      "##ucky": 8778,
      "1973": 8779,
      "protest": 8780,
      "signed": 8781,
      "matched": 8782,
      "##opped": 8783,
      "prisoner": 8784,
      "prisoners": 8785,
      "terrorists": 8786,
      "floating": 8787,
      "witnesses": 8788,
      "ashley": 8789,
      "chicks": 8790,
      "domestic": 8791,
      "incomprehensible": 8792,
      "biko": 8793,
      "cybor": 8794,
      "neighbors": 8795,
      "resources": 8796,
      "wisdom": 8797,
      "apt": 8798,
      "cities": 8799,
      "furn": 8800,
      "vic": 8801,
      "yard": 8802,
      "##fire": 8803,
      "##oh": 8804,
      "##erate": 8805,
      "##eson": 8806,
      "##oms": 8807,
      "##icia": 8808,
      "##ersh": 8809,
      "priceless": 8810,
      "worn": 8811,
      "org": 8812,
      "##ousing": 8813,
      "lect": 8814,
      "carell": 8815,
      "keith": 8816,
      "attrib": 8817,
      "viewings": 8818,
      "##aware": 8819,
      "helpless": 8820,
      "classical": 8821,
      "dreary": 8822,
      "ridden": 8823,
      "lively": 8824,
      "capturing": 8825,
      "tomatoes": 8826,
      "solution": 8827,
      "damon": 8828,
      "earl": 8829,
      "appreciation": 8830,
      "losers": 8831,
      "fascinated": 8832,
      "squad": 8833,
      "equip": 8834,
      "witnessed": 8835,
      "responsibility": 8836,
      "substit": 8837,
      "ensues": 8838,
      "proceeds": 8839,
      "manipulative": 8840,
      "challenging": 8841,
      "alternate": 8842,
      "barrymore": 8843,
      "agreed": 8844,
      "jaws": 8845,
      "accompanied": 8846,
      "basketball": 8847,
      "rhyth": 8848,
      "incompetent": 8849,
      "analysis": 8850,
      "rabbit": 8851,
      "antwone": 8852,
      "orphan": 8853,
      "technicol": 8854,
      "3d": 8855,
      "cri": 8856,
      "lush": 8857,
      "mud": 8858,
      "os": 8859,
      "rude": 8860,
      "rats": 8861,
      "wals": 8862,
      "##lins": 8863,
      "##lma": 8864,
      "##ju": 8865,
      "##atics": 8866,
      "##edly": 8867,
      "##lls": 8868,
      "##otion": 8869,
      "rew": 8870,
      "butler": 8871,
      "alison": 8872,
      "scor": 8873,
      "plausible": 8874,
      "abra": 8875,
      "map": 8876,
      "trump": 8877,
      "spaces": 8878,
      "parties": 8879,
      "wrench": 8880,
      "grass": 8881,
      "serving": 8882,
      "##bergh": 8883,
      "##ocol": 8884,
      "belushi": 8885,
      "smiling": 8886,
      "indiffer": 8887,
      "trace": 8888,
      "mighty": 8889,
      "tyr": 8890,
      "defined": 8891,
      "greed": 8892,
      "snob": 8893,
      "masterful": 8894,
      "rocky": 8895,
      "randy": 8896,
      "unden": 8897,
      "satisfy": 8898,
      "arrival": 8899,
      "compelled": 8900,
      "property": 8901,
      "disgrace": 8902,
      "equivalent": 8903,
      "widely": 8904,
      "accomplish": 8905,
      "frequent": 8906,
      "owen": 8907,
      "alternative": 8908,
      "championship": 8909,
      "excessive": 8910,
      "subplots": 8911,
      "incorpor": 8912,
      "overacting": 8913,
      "alleged": 8914,
      "mundane": 8915,
      "othello": 8916,
      "holl": 8917,
      "jord": 8918,
      "mtv": 8919,
      "nyc": 8920,
      "sf": 8921,
      "zize": 8922,
      "##iour": 8923,
      "##hin": 8924,
      "thomp": 8925,
      "##inations": 8926,
      "whit": 8927,
      "scand": 8928,
      "doct": 8929,
      "exquisite": 8930,
      "orleans": 8931,
      "fee": 8932,
      "seeks": 8933,
      "tends": 8934,
      "pee": 8935,
      "pock": 8936,
      "##forward": 8937,
      "##ansas": 8938,
      "##azaki": 8939,
      "##ashi": 8940,
      "insomnia": 8941,
      "##arring": 8942,
      "consci": 8943,
      "superst": 8944,
      "graham": 8945,
      "suspend": 8946,
      "barrel": 8947,
      "novak": 8948,
      "psychic": 8949,
      "duch": 8950,
      "campa": 8951,
      "hilariously": 8952,
      "rukh": 8953,
      "1984": 8954,
      "historically": 8955,
      "##strong": 8956,
      "crucial": 8957,
      "angela": 8958,
      "channels": 8959,
      "exceptionally": 8960,
      "legit": 8961,
      "dressing": 8962,
      "warmth": 8963,
      "ninja": 8964,
      "dropping": 8965,
      "enthusiasm": 8966,
      "landscapes": 8967,
      "rangers": 8968,
      "wacky": 8969,
      "wagner": 8970,
      "walsh": 8971,
      "zizek": 8972,
      "bumbling": 8973,
      "dj": 8974,
      "dw": 8975,
      "omen": 8976,
      "pix": 8977,
      "wang": 8978,
      "wishing": 8979,
      "##uction": 8980,
      "##orth": 8981,
      "##ioni": 8982,
      "##aman": 8983,
      "exorc": 8984,
      "orange": 8985,
      "meand": 8986,
      "clip": 8987,
      "perce": 8988,
      "showdown": 8989,
      "willie": 8990,
      "spain": 8991,
      "imitation": 8992,
      "crown": 8993,
      "prequel": 8994,
      "carla": 8995,
      "specially": 8996,
      "simult": 8997,
      "obst": 8998,
      "##ubby": 8999,
      "subl": 9000,
      "leth": 9001,
      "monk": 9002,
      "polished": 9003,
      "entr": 9004,
      "creativity": 9005,
      "distress": 9006,
      "generated": 9007,
      "##veloped": 9008,
      "cannon": 9009,
      "mentioning": 9010,
      "sweat": 9011,
      "ern": 9012,
      "1933": 9013,
      "masterpieces": 9014,
      "recording": 9015,
      "opportunities": 9016,
      "randomly": 9017,
      "13th": 9018,
      "mentions": 9019,
      "nonsens": 9020,
      "loaded": 9021,
      "pursuit": 9022,
      "cassave": 9023,
      "cassidy": 9024,
      "watson": 9025,
      "improvement": 9026,
      "methods": 9027,
      "heights": 9028,
      "survivor": 9029,
      "fido": 9030,
      "chooses": 9031,
      "mechanical": 9032,
      "pamela": 9033,
      "astron": 9034,
      "soderbergh": 9035,
      "irrelevant": 9036,
      "abraham": 9037,
      "thompson": 9038,
      "30s": 9039,
      "bs": 9040,
      "cad": 9041,
      "darn": 9042,
      "eb": 9043,
      "goo": 9044,
      "meryl": 9045,
      "oly": 9046,
      "##po": 9047,
      "therap": 9048,
      "stab": 9049,
      "dele": 9050,
      "intim": 9051,
      "##icking": 9052,
      "quinn": 9053,
      "awfully": 9054,
      "##eping": 9055,
      "drum": 9056,
      "performs": 9057,
      "reson": 9058,
      "simmons": 9059,
      "indic": 9060,
      "phony": 9061,
      "elm": 9062,
      "##onson": 9063,
      "household": 9064,
      "morbid": 9065,
      "brenda": 9066,
      "behold": 9067,
      "promises": 9068,
      "duv": 9069,
      "ruins": 9070,
      "suffice": 9071,
      "damme": 9072,
      "palace": 9073,
      "introduce": 9074,
      "purposes": 9075,
      "ramones": 9076,
      "punishment": 9077,
      "marketing": 9078,
      "sabrina": 9079,
      "kuros": 9080,
      "caliber": 9081,
      "minimum": 9082,
      "obliv": 9083,
      "wounded": 9084,
      "feminist": 9085,
      "hippie": 9086,
      "album": 9087,
      "empathy": 9088,
      "travesty": 9089,
      "borrowed": 9090,
      "scotland": 9091,
      "gifted": 9092,
      "##onymous": 9093,
      "whoopi": 9094,
      "august": 9095,
      "eastern": 9096,
      "eugene": 9097,
      "equipment": 9098,
      "bos": 9099,
      "dil": 9100,
      "gate": 9101,
      "gret": 9102,
      "hans": 9103,
      "honey": 9104,
      "rail": 9105,
      "soup": 9106,
      "saint": 9107,
      "ustin": 9108,
      "##aving": 9109,
      "##rows": 9110,
      "##esc": 9111,
      "##alie": 9112,
      "stor": 9113,
      "##cel": 9114,
      "chand": 9115,
      "##uries": 9116,
      "sugar": 9117,
      "unoriginal": 9118,
      "unaware": 9119,
      "##igm": 9120,
      "clu": 9121,
      "bloom": 9122,
      "quit": 9123,
      "##plo": 9124,
      "##tends": 9125,
      "##izations": 9126,
      "##angle": 9127,
      "inducing": 9128,
      "coff": 9129,
      "##xties": 9130,
      "stargate": 9131,
      "dana": 9132,
      "moronic": 9133,
      "dreck": 9134,
      "definition": 9135,
      "fuller": 9136,
      "geek": 9137,
      "fury": 9138,
      "1987": 9139,
      "respected": 9140,
      "spacey": 9141,
      "1997": 9142,
      "roller": 9143,
      "rolled": 9144,
      "expressed": 9145,
      "businessman": 9146,
      "masses": 9147,
      "popularity": 9148,
      "conduct": 9149,
      "##borough": 9150,
      "receives": 9151,
      "testament": 9152,
      "biography": 9153,
      "kissing": 9154,
[...]
