[PAD]
[UNK]
[CLS]
[SEP]
[MASK]
!
"
#
$
%
&
'
(
)
*
+
,
-
.
/
0
1
2
3
4
5
6
7
8
9
:
;
<
=
>
?
@
[
\
]
^
_
`
a
b
c
d
e
f
g
h
i
j
k
l
m
n
o
p
q
r
s
t
u
v
w
x
y
z
{
|
}
~
¡
¢
£
¤
¦
§
¨
«
®
°
³
´
·
º
»
½
¾
¿
ß
æ
ð
ø
–
‘
’
“
”
…
₤
##t
##i
##f
##n
##e
##s
##c
##a
##l
##r
##g
##o
##j
##y
##v
##d
##u
##m
##w
##h
##p
##k
##x
##z
##b
##5
##9
##8
##1
##2
##3
##0
##q
##´
##4
##7
##6
##¨
##¢
##®
##½
##¦
##ø
##³
##ß
##æ
##£
##ð
##°
th
the
##er
##in
##nd
##at
##es
##or
##en
##ing
##is
##ou
##on
##ed
and
##ar
to
##ll
of
##an
##it
##re
in
##as
br
is
##om
it
##ic
##le
##ot
wh
##al
be
##ut
##ct
##il
##ie
##ly
##st
on
this
##ov
that
re
st
##ow
##ent
##ad
##ve
##ch
##ion
##et
##ay
##gh
##se
mov
for
as
was
an
##ith
##im
sh
##id
fil
film
se
##all
with
##oo
##ce
##ver
##am
##ld
you
he
##ir
movie
but
ch
ha
##ke
##ur
##ter
li
not
##ill
##her
##ally
##ers
fr
his
##ess
##ck
at
su
pr
are
##est
##ome
##em
##pe
##ould
##ul
so
al
sc
##ri
we
have
her
##ght
do
de
##ain
one
##ust
act
all
ex
who
##un
##ra
pl
ab
##ore
com
##out
##op
##ood
##ab
ne
##ol
##act
ma
they
by
##ant
##el
##art
##ies
##us
##ge
wor
like
or
some
##pp
from
con
##ous
##ere
out
##ist
en
##os
##ast
##th
there
di
##one
##ost
##ven
##ight
##od
just
un
##ation
me
##ough
##um
le
##ate
##au
char
##ich
##fe
about
has
tim
can
##and
if
##ery
##atch
tr
man
what
##ory
##ind
##ard
##ive
##ack
##pt
my
##ort
good
any
ever
she
up
##ud
##ook
##reat
charact
no
when
##ak
more
watch
fe
int
get
very
see
##ong
##ig
would
##ity
go
cl
##ob
story
bec
##ound
even
how
##ite
time
ar
am
##ame
##ff
per
##ther
##able
which
only
##oy
really
had
##hing
##og
##ag
other
show
their
scen
##ious
##ue
than
were
well
##itt
him
te
pe
will
kn
sp
##ap
##ure
##ink
##ick
did
im
##ful
end
does
them
mu
##ars
over
##ine
##ond
##our
great
##man
##ays
bad
##ade
##ence
bet
look
bl
qu
##so
##ci
lov
ad
##ment
##rect
af
##ause
most
much
fa
cr
tw
fir
thr
##ish
don
could
us
peop
##pl
##ice
every
dis
pre
been
people
po
direct
sa
first
also
into
##iv
because
too
think
know
ag
##ose
##ple
##ide
off
##int
##lf
##ble
part
wr
real
##age
##other
##ass
##per
made
way
##oll
make
thing
car
its
after
##ors
then
##for
gu
ye
fun
mak
##ile
##ict
fl
##pr
##te
##ry
movies
##ull
seem
##ated
##gin
gr
inter
work
##ces
##ty
ser
character
##ary
ro
##cc
##ually
##ical
##ian
play
##own
aw
##iew
characters
##ep
plot
##qu
love
##tain
two
films
##pect
dr
##ach
your
never
##fect
being
##iz
##ber
seen
##self
many
life
where
want
som
##ance
des
##ny
jo
##ittle
acting
best
hor
little
somet
##ves
say
##ens
back
##nder
through
##urn
##ip
##wn
##oc
##ans
rem
##ving
##get
##ath
##ang
##ark
19
may
##ake
##ents
##ily
##oss
sl
##ne
ve
spe
##ather
rec
##ild
here
##ult
str
still
better
##we
##ise
##ace
##ire
##ions
##ph
ke
should
perfor
##ia
##ual
min
again
find
bel
kill
these
att
under
scene
new
old
##augh
why
while
feel
prob
##igh
##thing
##ase
res
##ought
inc
now
scenes
sim
##ting
em
such
something
##ater
gen
##iend
10
cast
##oth
happ
##ning
interest
##odu
ap
fam
hum
##ably
##ac
sur
gir
lot
##ree
##are
point
mus
##if
##me
ev
##ating
##ason
##ever
fin
scre
cont
performan
##fore
wom
those
##alk
##ense
##arly
##ations
##oun
watching
##be
##less
es
doesn
director
though
dec
##ying
down
years
set
actors
##ng
che
big
sm
ob
##li
##ror
##joy
didn
before
enjoy
id
##ect
##ial
guy
another
view
young
ter
nothing
funny
##vel
comed
tak
start
fact
actually
##av
high
makes
long
ori
mis
exce
belie
##az
##ock
produ
comp
war
going
mar
rel
few
tri
girl
pret
##erson
same
world
origin
##ute
got
turn
supp
ind
app
##ience
ho
tra
##ash
hard
diff
##ub
sub
bit
sec
own
##aw
##ool
sin
##cial
ph
##ible
thought
el
##ript
inv
friend
##ft
##der
wond
ed
far
quite
##ave
laugh
screen
stu
comple
things
pretty
bu
need
right
##eric
##ffect
ins
kid
bas
##aut
seems
around
##les
horror
##iting
bor
original
##ction
wonder
effect
##ib
take
however
cam
acc
person
inst
##ings
hel
script
enough
##ways
##ved
##ced
series
##ween
enter
both
cra
##arr
##ention
##ons
class
between
action
give
##ically
americ
child
kind
##ately
must
appe
sex
op
mom
read
beaut
tell
cons
come
##ness
without
comedy
let
times
always
ep
##inem
alm
hand
music
saw
last
reason
put
rev
##ell
gets
family
isn
cinem
interesting
role
##ead
##ug
##utes
co
##ale
almost
main
##vious
art
##icul
##ouse
least
sure
whole
done
aud
par
mon
shot
lead
ll
sound
book
##ward
might
##its
expect
differ
cle
##ody
##ully
##ines
sch
##press
##ner
##ks
expl
ide
##ount
making
worth
##app
##ress
anything
minutes
gl
run
##raph
cour
complete
begin
since
call
super
night
performance
##hn
##oot
##over
day
##ently
##ane
woman
pol
boy
probably
##rible
help
entertain
yet
care
##ord
##uring
##son
tv
john
away
chr
ext
ste
##lem
imp
add
rob
##cially
mean
rather
##stand
worst
mat
##ail
##oney
##red
abs
ty
found
sequ
our
##xt
comm
##ign
##alog
pres
##ism
##ative
poor
vers
gi
ent
miss
##ures
##ition
##als
##isod
anyone
episod
##istic
mind
ac
less
def
##ives
played
bo
each
##mend
##apt
star
happen
cre
##ange
dialog
mur
espe
alth
having
##ady
although
especially
pro
##osed
anim
keep
##ember
hal
bud
##umb
lik
believe
course
unf
##ert
job
second
surpr
sk
ey
##led
comes
looking
##ten
trying
##wood
##ling
rest
##aster
dv
place
##ject
house
goes
year
stand
port
sense
##00
black
##ither
##ollow
perfect
conf
looks
##olly
dvd
different
##ife
dram
actor
##ograph
##ingly
money
dan
problem
ending
true
##ret
head
maybe
##here
##ertain
someone
vis
##empt
wasn
once
cou
prov
fan
everything
##ah
##ates
gra
##lud
low
creat
##iter
short
##ney
##ank
nice
pa
shows
##ics
men
pow
##hip
follow
recom
##oint
three
##iful
ann
recommend
##ues
talk
american
half
fall
mor
imag
##ments
fav
dre
cor
certain
sing
##iece
toget
together
poss
eng
det
death
##ider
rom
watched
obvious
ele
nor
##aps
special
father
everyone
sy
plays
##ality
exper
effects
later
dra
audience
said
takes
excell
instead
review
home
form
top
##ilar
beautiful
dead
hour
sit
left
himself
ple
version
tit
christ
##ortun
else
wife
##ences
##cing
heart
rele
understand
during
##ames
sus
simp
camer
##ern
exc
##sy
sty
##ray
friends
##ollywood
seeing
##land
##way
tal
red
dist
lu
##ier
bre
came
excellent
##atic
##ted
##omb
##ro
entire
##ited
fight
use
defin
col
idea
##ists
sad
disc
serious
ass
tot
##pid
##ird
feat
##uth
tru
##0s
includ
beh
##ional
remember
hist
vi
pict
##itch
##arn
##fully
##ren
unt
##day
ang
invol
stud
##ime
human
##ides
wa
simply
line
mem
ref
##gg
##ton
##ix
song
vide
budget
##io
disapp
##vin
##ster
attempt
stupid
hollywood
gener
lack
disappoint
wrong
##dd
##ised
##ets
dark
##ented
ir
mess
hero
ret
open
completely
full
cop
hope
supposed
used
eas
##ared
along
##ann
nat
either
dep
absol
##ired
try
except
sw
given
word
ra
##ru
count
kids
absolute
mod
loc
win
classic
conc
small
performances
women
amaz
school
particul
boring
bat
##cy
pain
##ied
light
fail
##oon
coll
won
##itten
ok
production
##tle
adv
dou
blood
##cept
consider
camera
until
exam
##ize
pass
##ew
dri
awful
emot
##ography
stars
viol
bar
hu
rich
mid
##ters
murder
sat
truly
##ys
video
jack
becom
favor
sort
reg
couple
mr
next
ge
##vers
spo
##elt
##oice
mich
cut
av
##wh
god
##velop
name
brother
definite
##haps
power
gre
##sc
perhaps
cred
##que
##ities
face
portray
rid
##ote
slow
sever
flick
cur
moments
yes
##oles
##gr
##aring
episode
wonderful
##iness
live
walk
##air
##olog
desp
sn
dem
terrible
##ott
cent
playing
fant
##ric
getting
mother
##sel
humor
##ories
written
##ased
##lish
har
early
doing
master
often
style
develop
others
pop
##ility
actress
##illi
##rib
definitely
gives
dav
unfortun
##mer
mag
guess
##unch
itself
stop
##amp
lines
case
lost
##ief
##ler
become
dialogue
piece
##ison
trans
finally
##ork
felt
strong
quest
white
capt
impress
##enn
cinema
##ized
oh
liked
thrill
##ming
val
children
##cum
##med
couldn
side
extre
son
##kes
##ident
title
##body
close
pur
##ibly
picture
absolutely
cann
went
##ael
##ows
##ush
uni
##ony
against
unc
##ouch
waste
worse
evil
certainly
mention
vict
past
##ont
succ
killer
nov
deli
##illiant
brilliant
support
town
entertaining
hit
##oid
overall
contr
adm
##ley
fans
called
based
relations
loved
rock
beginning
fair
spoil
extreme
##ains
stre
several
##illy
hon
##imes
##arth
drama
pet
##my
et
##ump
##ular
list
lives
pred
##ract
pat
##ready
##ured
direction
##used
dev
##ins
psy
wood
already
becomes
la
del
psych
##ams
med
inf
example
michael
##yn
success
break
##rif
despite
##selves
seemed
fine
vill
zomb
throughout
##orn
##eng
unfortunately
wanted
##ision
##tern
##ts
je
##aughter
final
self
history
writing
##amed
##line
relationship
game
touch
amazing
tech
##ms
##osp
##ior
##king
rep
fem
200
totally
num
guys
##play
quality
cult
annoy
fre
pick
soon
occ
works
wants
gun
tre
##ement
sci
behind
deser
lar
tom
##ove
prom
tries
mot
##oup
cost
##ister
##orge
##ided
ben
days
mark
maj
foot
##uss
viewer
able
eff
comment
appar
##riend
manag
genre
stuff
mad
##ape
turns
swe
##ged
enjoyed
today
shoot
deal
novel
prop
docum
wish
sol
##cess
stra
prof
favorite
late
ant
eyes
##ination
hell
techn
import
fig
crit
contin
etc
learn
age
sle
##unk
##ude
starts
met
##iss
##ined
sometimes
gave
incred
appear
lea
bur
bus
typ
##ese
girls
susp
city
level
##ger
directed
moment
##ution
horrible
intell
##by
##itive
exact
parts
speak
situ
##ards
const
inde
themselves
stories
thinking
##ific
robert
du
##ench
##using
major
return
hot
opp
voice
musical
event
cinemat
type
document
group
room
obviously
brit
plan
##etic
decent
bab
##iving
hop
non
paul
##vable
writer
bro
##astic
matter
highly
myself
##ural
mil
##yp
feeling
daughter
hus
rent
##iet
teen
##old
four
hilar
ridicul
chang
ger
##band
anyway
##where
##ered
effort
mill
weak
roles
tele
##ung
heard
killed
king
says
##ien
marri
convin
leave
police
husband
james
hold
##antly
##like
##ising
took
predict
cannot
ridiculous
rating
##ipp
strange
violence
air
##dle
fut
living
##ma
bring
mel
shock
gar
stay
happens
cool
##ross
known
##dy
mart
##antic
particularly
involved
happened
season
chance
##up
crap
##gan
step
##ax
wouldn
extremely
gore
none
##els
check
esc
##gn
camp
var
told
coming
polit
er
alone
hilarious
##eless
opin
experience
##he
##ering
order
david
cheap
law
pot
pay
result
including
country
clich
please
deep
pos
body
sil
ru
quick
cat
land
simple
desc
lou
##gu
honest
ten
##lt
sum
spir
dest
ago
forget
score
##ik
##mak
##zy
jap
##urb
save
##ett
##iest
##ek
phot
foc
english
ill
osc
##iff
earth
number
japan
##lling
##ential
looked
fill
sent
##ether
frank
career
huge
myst
##akes
##cer
suff
seriously
##owing
possible
fur
##vision
##esh
annoying
treat
##use
##arch
similar
sor
apart
exactly
##bo
shown
avoid
running
##ational
scary
taken
sym
yourself
198
##outh
reality
mist
whose
secret
released
cinematography
near
ends
mc
##uck
##co
usually
dam
hours
prem
jokes
opening
ult
straight
post
##ances
ones
dog
modern
##br
197
ear
sam
##side
##what
wes
across
##enty
middle
willi
usual
opinion
somewhat
gold
happy
talent
##nds
##ustr
doub
change
pull
ut
##nded
cla
started
##itting
narr
filmmak
##ians
eye
single
##ram
##ina
##ground
##ino
##iety
##wards
taking
talking
documentary
build
##ator
gh
odd
exist
##ival
finds
shots
prot
among
saying
female
ask
intr
mostly
cart
sold
episodes
richard
fast
jer
subject
suspense
##ained
five
bill
sign
meet
important
##ec
##ield
exp
turned
##ones
##otic
##ugg
##anger
deliver
inn
respect
apparently
##sh
disappointed
##lic
due
aren
##form
creep
local
remind
vir
atm
events
box
20
songs
emb
intellig
attention
basically
atmosp
comic
television
space
future
jud
knows
british
##ubb
bey
clearly
romantic
supporting
knew
199
##ball
thriller
cap
##ald
##ants
compl
##bel
easily
stun
dream
silly
adult
lo
pub
##eth
present
problems
free
words
##iction
detail
pleas
##iel
##rack
tells
##ises
entertainment
gang
appre
die
##ike
team
ham
forg
sequence
den
sexual
hands
lady
dull
##ital
##ished
beyond
mater
attack
norm
george
##iod
grand
##ats
##lly
##ili
oscar
##ox
upon
##usion
unlike
fell
question
whether
suck
theat
moving
predictable
##ental
aspect
appreci
hate
prog
twist
sets
york
falls
mystery
##rop
cover
##orable
##ury
fire
##ky
mer
period
german
material
van
enjoyable
##how
needs
appears
hun
giving
los
lee
##ots
match
##oul
adapt
previous
feature
stri
##asy
within
##ension
french
actual
##gy
comb
ultim
message
##den
theater
##oof
trou
path
animation
wind
tar
sister
##asc
joe
prin
##arely
insp
bunch
above
sequel
clear
pac
##path
victim
theme
wait
##wise
nearly
surv
haven
points
ways
easy
herself
flaw
doubt
est
feels
setting
superb
ca
release
aff
hall
truth
storyline
slight
hom
lots
named
surprised
##nding
using
visual
fi
##ires
fantastic
##ices
clim
third
advent
begins
working
ine
##ength
personal
##dden
roll
minute
famous
jim
##essed
western
tale
##ctor
sudden
weird
viewers
buy
##sw
##ana
##icult
elements
general
large
reve
disney
accept
##track
##ps
dumb
hear
deb
comments
drug
##aught
soundtrack
typical
##imin
showing
editing
lat
difficult
wall
tried
sugg
obs
##res
express
peter
sorry
suggest
pal
auth
wild
flash
aver
##light
##uses
filmed
contain
figure
catch
##iters
decided
parents
means
crime
front
fly
mix
vamp
realistic
compan
cal
##omin
oper
somehow
park
##ope
exec
stage
profess
gone
water
lame
project
##ening
##lin
##onic
kept
viewing
leads
utter
soc
dance
street
business
une
greatest
zombie
195
##na
##alian
atmosphere
brought
note
meaning
beat
##opp
imagine
##omp
whate
introdu
pure
##ceed
whatever
shame
move
ghost
lim
liter
male
particular
band
iss
heav
america
sequences
conne
##ially
average
sens
revol
indeed
background
baby
eventually
spirit
eur
reviews
hy
jump
japanese
surprise
##db
poorly
okay
fu
##back
nature
premise
believable
##oose
##ively
193
possibly
sleep
wit
strugg
girlf
chees
expected
sweet
earli
jane
tast
teach
imdb
phil
##bers
public
##head
ver
starr
forward
##ously
masterp
became
thank
appeal
##ored
screenplay
killing
commun
romance
further
hur
train
clos
terrif
stick
costum
scott
rand
##uted
ball
##com
##mas
reading
girlfriend
mach
jul
##zz
needed
leaves
lang
##right
ach
conv
fasc
##iences
villain
jour
trad
mass
meets
directors
##bert
society
mo
sick
enc
unless
credits
##ogn
write
bored
prison
otherwise
battle
fran
uns
situation
meant
resp
dramatic
luck
refer
bother
da
##gs
##key
design
##ges
##hood
monster
memorable
emotion
unique
burn
##ages
badly
flat
earlier
##emy
writers
clever
##overs
forced
emotional
acted
hair
##inc
inte
laughs
crazy
pu
social
older
##ai
##bs
beauty
disturb
total
mir
##rap
realize
fantasy
30
##cers
interested
##roy
##ding
fred
footage
stere
##pend
trash
concept
rad
und
impr
popular
gay
sal
##rit
allow
ale
##por
whom
plus
sounds
##lie
##oph
directing
##isf
development
cartoon
ble
##uct
keeps
features
##rupt
nud
cond
##fer
##uc
colle
repr
doctor
196
quickly
creepy
towards
##aking
##aked
perfectly
histor
brain
green
mac
worked
cheesy
##row
brings
##cessary
plenty
imm
rate
cir
##view
occas
##ula
christmas
incredibly
answ
collect
innoc
dad
les
##ara
repe
##ived
joke
kick
##ius
casting
ign
leading
discover
##iliar
##gest
##ites
sun
admit
bed
desper
powerful
potential
era
boys
william
##ague
ess
copy
fest
##real
##ches
telling
stereot
cas
appro
hardly
masterpiece
##ero
track
create
mary
##olf
political
##str
recogn
various
attract
fighting
purp
agree
invest
fails
langu
80
neg
cru
##ken
scient
##inger
portrayed
log
plain
inside
cold
pie
island
extra
color
bull
outside
nudity
##venge
##let
reasons
claim
phys
ideas
crew
relig
missing
ce
stat
fear
amount
##ips
broad
positive
mas
deserves
married
##more
doll
trail
cry
##ivid
expecting
fairly
##bor
##lect
talented
15
ur
sympath
embarr
react
##ology
cute
remake
attempts
spoilers
manages
##ills
194
fat
ident
embarrass
sand
scar
recently
##itty
##belie
achie
din
##ene
offic
##berg
danger
fit
##wart
sadly
wrote
##ishing
subtle
ri
mood
porn
tur
myster
familiar
hol
remark
depth
soul
##aces
##asher
destroy
reveal
biz
rap
office
##arre
chem
arr
lege
##itted
following
detect
filmmakers
unbelie
accident
missed
##istry
explain
mentioned
delight
requ
incredible
kar
ram
cross
record
medi
common
reach
wasted
lab
brief
funn
control
90
##off
angel
members
brothers
escape
europe
intri
ended
caught
##gar
revenge
produced
ber
amb
pace
##friend
##go
draw
fash
##lu
##alth
scream
approach
##ders
idi
filled
immed
party
chann
science
##agon
complex
waiting
victor
cand
credit
##lusion
decides
solid
##oe
considering
bes
tension
##ient
immedi
rece
haun
comput
pointless
created
mere
##izing
slightly
crimin
uses
slasher
sees
intern
travel
regard
convincing
compared
imposs
former
suddenly
breat
cause
tough
##ey
neither
spent
numb
force
magic
anti
intelligent
road
state
##erv
##rage
glad
entirely
forgot
six
##ral
##ades
dancing
language
gover
##ned
##eem
italian
moves
choice
kills
##acy
wer
search
##oop
store
laughing
century
trouble
##work
##ibility
##esome
basic
value
bizarre
manner
successful
tony
witch
##itation
violent
satisf
heavy
tort
##par
week
ultimately
dim
singing
exciting
harr
##urs
suspect
test
##gic
zombies
ground
news
studio
natural
##orm
suit
##ries
key
smith
animated
company
stereotyp
ran
west
arri
faith
genu
biggest
accent
fol
trip
continu
mal
##lict
died
terror
runs
pack
##uit
##uce
effective
ted
##isingly
recent
##iers
spend
adventure
amusing
focus
fashion
bomb
fort
##iment
compe
##aging
portrayal
critic
hid
rated
##wr
brut
planet
appreciate
genuine
shar
concern
milit
books
repres
bond
lad
ii
ray
south
alien
younger
##inary
##pped
awesome
drag
##rew
stan
fascin
tone
##come
##ilt
impressive
opportun
alex
govern
squ
##la
##ze
follows
gri
##ened
depress
explo
spot
college
legend
50
wal
seg
afric
culture
impossible
##iced
carry
pract
fool
hen
smo
product
magn
##oved
##standing
producers
depict
weren
dir
thanks
makers
conclusion
chemistry
tor
##ring
##une
showed
recommended
##bage
amate
##ribly
loud
taste
pers
exception
situations
starring
que
rain
##rated
compet
favour
door
disturbing
ast
hang
leg
flo
steve
considered
proper
changed
##ried
somewhere
##ager
minor
failed
purpose
barely
##ron
##ette
##aced
decide
million
boss
repl
pictures
leaving
author
vo
##ensive
questions
shooting
lif
disg
longer
##ppy
equ
fiction
100
audiences
bott
pan
fake
assum
normal
fox
aside
neigh
nightm
dick
russ
##iny
addition
computer
cow
tem
##xic
##bl
##ode
ups
##ounter
stewart
images
wise
##ha
##sters
wee
charming
##ological
mi
##min
##ham
club
harry
pathetic
lond
##ee
throw
grant
award
##ization
generally
stunning
literally
##fort
##de
##att
##arily
values
journey
proc
indian
likes
surprisingly
redeem
alive
involving
jeff
london
##ka
noir
##izes
humour
affect
channel
yeah
grade
cliche
mysterious
immediately
military
sar
length
motion
garbage
unex
detective
finish
bought
fresh
drive
random
chur
christian
amateur
mouth
smart
impression
hey
##ille
ability
##aged
honestly
##boy
##urd
army
##aper
serv
genius
##ifully
standard
barb
adaptation
utterly
investig
suc
nobody
indust
spect
##aa
##lla
##sey
bob
mult
sitting
notice
demon
appearance
tradition
rare
inform
blond
serial
insult
succeed
11
bi
chase
##opher
##anna
climax
bottom
70
knowing
##while
rog
##to
##iance
personally
graph
naked
sexy
jes
##ging
chris
wow
thin
nowhere
absurd
gem
##ining
blue
##ified
edge
der
paris
##room
threat
added
silent
pil
##rel
##idence
charlie
remains
comedies
walking
gag
##vey
twists
thinks
producer
curr
date
##die
##ops
beautifully
dreams
18
##ena
sell
charm
##lessly
touching
terrific
unbelievable
mild
batman
witness
eq
##mon
##wor
terms
boyfriend
##sequ
arch
breath
equally
ring
##erous
init
##ases
fore
ash
chall
##appe
interview
surr
compar
accur
government
##cast
##ores
##stem
kelly
drawn
##rey
bal
##ped
sher
spl
##cif
##rick
##ify
month
steph
connect
church
boo
fully
ju
joy
ride
##ios
mistake
base
cg
defe
drunk
conflict
managed
narrative
##cious
##aly
lovely
laughable
element
system
pieces
intrigu
##mark
##icious
##unt
##anda
themes
vampire
##vent
##aint
likely
block
passion
soldiers
##uster
disappointing
cele
rac
##gen
chick
##aine
##ropri
##men
##itions
excuse
avail
issues
##aven
thus
##ica
##iring
outstanding
justice
painful
spoiler
##gl
surely
marriage
affair
flashback
costumes
innocent
aut
bon
host
jones
na
moral
christopher
constantly
##vert
arg
presented
central
respons
trick
lord
prep
individ
cinematic
##uff
##isc
everybody
slowly
shall
places
influ
contains
jew
##oes
charles
offer
presence
animals
details
medioc
besides
##vir
thrown
jean
historical
moon
##ched
loves
woods
round
allen
trust
scenery
steal
hoping
escap
photography
program
henry
surf
buff
independ
##oughly
disappointment
speaking
nast
page
##ole
expectations
developed
arth
numbers
pen
rip
sight
thor
soft
##ability
div
buck
double
roy
##imp
impact
commer
ahead
fright
sport
univers
40
eight
names
##verse
behav
festival
arm
suppose
stands
critics
hotel
describ
aspects
opera
loose
##mm
##arsh
lover
discuss
fascinating
dies
anth
##irth
impl
##kn
##itude
heaven
crow
feelings
subst
building
eat
##ki
forever
held
acts
ener
intense
clean
kr
bruce
filming
mainly
opportunity
ug
##icated
ship
student
surround
prim
cloth
##ford
hosp
##uous
##eter
drink
individual
zero
##oud
##icide
resem
sky
emotions
hurt
gorge
ros
traged
intended
available
12
san
twice
object
correct
celebr
sant
shakes
span
uncle
changes
born
protagon
compelling
cell
hat
##af
fellow
##inct
happening
likable
falling
nick
pun
tired
ww
lived
mexic
virt
##icip
##esty
canad
##ploy
puts
elect
summer
13
dubb
field
wid
shad
grace
jerry
ban
hide
ment
##ini
##ura
##andon
image
giant
confused
winning
qual
hasn
dress
remain
artist
victims
trailer
arthur
billy
led
##edy
mont
difference
include
melod
adults
disgust
##olic
dread
martin
net
nons
steven
devil
commercial
followed
wed
##ok
##entially
priv
civ
content
appeared
jon
wide
##ta
share
##ribe
highlight
putting
##ruct
race
##abb
actresses
listen
gorgeous
##table
##con
##ession
scr
blind
quiet
laughed
confusing
negative
holes
lam
stone
scare
##ift
murders
damn
progress
mediocre
##orter
##iday
deter
rape
multi
hospital
unus
americans
lacks
supposedly
youth
dig
unne
flaws
ms
##rid
##ples
latter
##onna
##ancy
agent
worthy
creative
occasion
answer
tragedy
ol
rout
seven
frustr
overl
students
lighting
##ushed
relationships
bland
childhood
helps
dom
##eman
##text
wondering
proves
circ
funniest
merely
knock
disaster
finding
paid
oppos
estab
bank
##een
##ledge
flicks
flying
queen
birth
brian
sem
fault
imagination
delivers
professional
ugly
lyn
##roc
alan
disappe
standards
irrit
davis
cliches
folks
##ech
##ature
##raid
formula
market
forgotten
lose
bright
resc
tragic
attractive
##pping
remote
impressed
soldier
bak
hook
##aton
austr
lock
##field
display
##azz
stuck
provides
thoroughly
shakespe
civil
##uts
##ander
seconds
achieve
mut
##aries
##unny
##tend
seemingly
becoming
games
##lor
##yc
##ano
adam
consist
williams
reminded
inspired
spectac
rose
##ilities
thats
offers
desert
##ountain
animal
depart
##ued
##itor
faces
warning
industry
hack
turning
summ
cab
##ique
##anced
##read
states
afraid
castle
contem
acad
skin
collection
station
subt
robin
hidden
nasty
stock
crack
melodram
aim
cook
food
rh
convers
##agger
willing
shouldn
artistic
##inese
court
creature
jackson
shocking
symb
protect
##nia
##aud
carr
##pected
##well
relative
wooden
apartment
sir
wars
##ban
conn
personality
location
virgin
scientist
rented
##zan
chinese
area
unkn
ready
adds
dirty
ice
tour
brown
weap
horse
vision
syn
angry
##asure
therefore
werew
prefer
speed
information
punch
##ef
##yer
brand
horrif
##azy
accord
lets
explan
filmmaker
jason
##aur
##house
##pret
##entious
chuck
unreal
anymore
warm
shakespeare
card
##aff
##yl
##hs
##orious
wel
clothes
east
hill
soph
unexpected
danny
picked
martial
describe
##board
bath
jenn
lin
tay
##under
##anic
asks
sac
favourite
fle
onto
##ands
craft
superior
deserved
domin
hitch
member
sav
grad
strength
intelligence
struggle
stephen
mountain
##hic
##bles
##atter
##ita
wearing
grow
captain
drugs
criminal
redeeming
mob
naz
rul
##asing
underst
compare
daniel
teenage
machine
allowed
cgi
##illa
necessary
tears
wonderfully
helped
target
radio
desperate
bog
lay
rubb
##gory
##und
##oted
max
accom
hund
repeated
religious
fab
jose
nomin
sis
##kin
moved
plane
##pective
phone
insight
dougl
theatre
##earch
brid
press
##ograp
##soever
##entional
includes
deeply
gam
mcc
##illing
whatsoever
research
##ipped
process
sour
andy
began
doz
humans
epic
powers
commentary
revolution
gent
loving
heroes
technical
nightmare
ton
##oos
suicide
realized
joan
energy
hint
lind
soap
carl
friendship
load
physical
taylor
rarely
sab
##ium
unw
flesh
comedic
curious
brutal
independent
douglas
60
core
dying
mental
sid
##itz
lew
empt
johnny
guns
teacher
cars
kate
ry
##urally
actions
introduced
##ropriate
kiss
##ga
bear
arts
board
engaging
ron
##rors
desire
slap
employ
eddie
superman
neighbor
hyp
rus
wil
anybody
morgan
magnific
unusual
cho
chap
north
apparent
pleasure
remarkable
##oom
ford
ens
spin
media
unknown
cate
tun
ven
##herent
##osh
watchable
kidn
england
hitler
contrast
continue
returns
river
unnecessary
##ube
##ba
##ency
scared
unin
tend
flow
keaton
perform
skip
memory
000
washing
crash
provide
columb
pilot
wedding
jr
ris
anywhere
grat
purs
occur
normally
##otes
pra
knowledge
bloody
signific
limited
russian
mike
finished
surprising
freak
prince
establish
hundred
80s
cage
opt
stret
twenty
##iac
smile
president
cops
motiv
intriguing
70s
fal
##ashing
alt
player
holds
torture
##ographer
andrew
brook
stink
price
somebody
unint
##apped
nicely
luc
constant
lynch
accompl
fate
jan
loss
rub
##ras
##rical
##lli
growing
wanting
matth
paced
crowd
eth
ly
thous
shir
vehic
transl
reminds
academy
gas
hated
##ste
pacing
ladies
according
bow
fer
##iven
##eper
##kward
##za
##bc
priest
##ante
enth
##ipul
gene
bits
visit
sword
asked
candy
cass
ner
sed
##ners
thom
pretentious
robb
heads
cind
mine
##bian
thir
##ators
chore
##urity
dressed
explos
dor
albert
##aph
awkward
dar
eric
fond
vol
ord
##pper
lovers
heroine
freed
tarzan
dangerous
lies
##odies
blame
saving
higher
originally
intellect
community
explanation
##ousy
kevin
instance
freddy
jesus
national
interact
account
issue
nonsense
dut
rod
##mo
separ
mission
regret
capture
deserve
mixed
ful
##ls
##bi
##bled
##iding
players
recall
belong
gotten
##ris
##rous
toward
shop
interpret
plots
struct
##ifer
explained
skill
fights
reflect
debut
##nat
##bre
brave
whil
resol
simpl
creating
european
accurate
gard
vhs
##time
##aus
##ooper
atroc
text
partner
starting
##stein
gal
kur
nic
sea
hadn
humanity
dimens
floor
spanish
whilst
cath
earn
fif
jess
paper
safe
model
sucks
cali
naive
rubbish
cable
fet
##port
belief
princi
officer
##ked
##itter
##entions
realism
simon
educ
proceed
memories
##ruction
uncon
broken
judge
eating
tick
##ker
##bid
seat
finest
psycho
villains
hart
lone
##iro
frame
manage
peace
##pless
aware
monsters
featuring
lacking
14
nin
tight
##ym
##atra
##anks
##sem
saved
keeping
trek
responsible
santa
lewis
gig
##ested
abandon
specif
below
kinda
understanding
treated
empty
##othy
terribly
insane
singer
cuts
results
pulled
jimmy
delightful
represent
werewolf
kong
vs
vul
wat
witty
##war
##atory
##ements
context
leon
charism
luke
hopes
washington
gary
hits
forces
noticed
##elle
morning
included
frequ
months
##father
##rays
##eness
##lled
##abor
surreal
marvel
complain
screaming
private
bound
##hol
reun
##asts
whenever
contrib
assist
driving
snow
numerous
reaction
blonde
behavior
dun
##oons
##ario
organ
expert
regular
streets
international
concerned
cash
dated
loy
pin
##nam
wealth
finale
contri
bigger
talents
dealing
##olds
ordinary
ow
##vant
##ping
stalk
##ading
liber
ali
##soci
unfunny
skills
imagin
reviewers
naturally
philos
discovered
kim
##che
sund
gross
pair
psychological
circum
perspective
traditional
determ
opposite
symbol
gord
tap
vac
##ront
##vis
manipul
marry
prove
junk
rat
##imental
conce
##arded
##achel
boat
corrupt
shallow
anthony
##ication
sean
##ourne
##ivity
owner
locations
humorous
gangster
loses
challeng
nich
##cise
bell
cris
minim
edited
##ails
golden
cruel
received
gags
##icate
##esting
##ulous
incre
satire
captured
continues
window
sharp
##fortable
magnificent
cant
hay
##sen
##isa
##lyn
anne
howard
calls
cameo
murdered
satur
mrs
miles
survive
##chester
bag
ren
##cock
##oke
deg
grown
incomp
opens
visually
corny
advice
breaks
existence
lucky
jennifer
25
dry
fict
lor
lake
##vit
##han
##bling
associ
deals
screw
buddy
colour
remembered
batt
connection
goof
veter
##ja
##val
##asm
##iles
##ilies
anton
chief
dism
disp
report
essentially
revealed
##laim
segment
current
print
##oses
trib
lesson
frankly
hallow
identity
harris
african
foreign
occasionally
welles
##cient
##bell
decade
marie
center
village
franc
dimensional
cyn
ruth
ward
##nie
sull
distract
learned
efforts
inex
thomas
circumst
kenn
mitch
rot
brad
##agers
versions
visuals
aust
kir
tas
allows
mini
drew
##aire
envir
grim
strang
anna
grew
sucked
references
logic
genuinely
comparison
ah
bird
inh
matt
study
iron
##anned
fairy
suffering
freedom
##natural
##ii
altern
overly
ages
emer
leader
meanwhile
standing
proved
experien
vampires
haunting
subtit
fare
tack
##ushing
mans
intention
obl
brilliantly
types
erotic
ultimate
improv
sheriff
spectacular
dyn
lie
wound
##ilog
unable
sheer
sake
obsc
relief
parody
failure
louis
photograph
##porary
fish
mic
mort
##lock
##stre
##uls
evening
killers
passed
stereotypes
demonstr
gratuit
code
pitch
##xual
##iling
tex
advert
awards
miser
sinatra
creates
technology
irritating
gordon
halloween
environ
kung
site
spoof
laughter
pleasant
joseph
row
##teen
anime
delivered
parker
broadway
cowboy
barbara
hung
##down
##eston
crappy
glass
uncom
philosoph
gonna
lud
pity
uk
heck
##usive
##thy
##away
executed
emotionally
sacrif
##night
stol
##sell
shel
haw
##rix
necess
decision
reviewer
hearted
discovers
switch
painfully
woody
moore
encounter
flashbacks
dreadful
native
##nal
##ss
families
driven
hunter
graphic
gory
von
##stick
convey
majority
authent
religion
protagonist
overlook
nav
tape
viet
asian
##osen
##theless
speech
attitude
built
entertained
seasons
silver
meeting
caused
gratuitous
##rant
send
chan
feet
wayne
nevertheless
underrated
command
##gged
meth
handsome
blockb
vehicle
cindere
hood
rise
range
##oring
shr
##ums
endless
blow
ade
##anged
relate
##ashed
##ugos
generation
levels
treatment
obsessed
service
##ville
france
quir
guard
##ques
costs
tedious
practically
amateurish
sports
aid
bik
##gm
ancient
aged
classics
excited
theatrical
inspir
expression
victoria
exploitation
described
shadow
cinderella
counter
##lo
##ya
##vy
##icit
chosen
consequ
refres
winner
jackie
popul
admir
cliched
inept
fortun
##mes
##ndy
hearing
dropp
screenwr
robot
breaking
combination
rescue
rules
fame
##cies
##nda
##hern
clark
##fornia
stopped
##iser
##ached
produce
invis
portrays
excit
theaters
inevit
lesbian
sympathetic
assume
hitchcock
refreshing
harsh
nancy
ya
asking
myth
ende
cares
believes
extras
capable
authentic
raw
##ault
##dom
anderson
shut
choose
##kend
prost
portraying
ruined
germany
largely
contrived
16
##erie
proud
wrest
incident
football
learns
hunt
embarrassing
karl
depressing
canadian
unrealistic
dynam
lion
link
##iled
##chan
sha
alco
##ument
assass
##whel
appealing
dubbed
lum
wre
##gue
prior
sole
##usi
clue
facts
matters
sequels
involves
ryan
uninter
environment
##zo
##aming
neat
evidence
minds
patrick
propag
costume
dinos
walter
fictional
##stream
cit
oli
vote
##oster
unfor
trilog
##phy
barry
strongly
teenager
mask
satisfying
nominated
oliver
om
##ients
##isher
inner
beach
##abeth
##acing
appropriate
disgusting
routine
excitement
cub
lousy
pitt
cliff
knight
flor
compos
talks
swim
losing
substance
saturday
nost
vague
##cul
thoughts
presum
promise
extraord
universal
till
##ez
##win
##bur
revel
##aded
##udd
carp
##ache
factor
capital
training
voices
circumstances
bodies
offe
champ
overd
##ugs
distrib
teenagers
convinced
haunted
baseball
17
bern
jung
nu
rough
##hi
##oman
outs
united
captures
purch
bringing
execut
criticism
dragon
trilogy
fits
tiny
vinc
##leep
forth
chair
restr
involve
rental
hanging
false
intellectual
nichol
francis
mum
pit
sne
##eg
##aver
##pir
asleep
##ama
horribly
remin
emph
eliz
lower
creatures
powell
hopefully
virtually
welcome
citiz
rival
##point
tow
clar
spark
drop
192
spell
handed
acqu
murphy
experiment
wins
walks
reporter
##ipping
descript
expos
initial
relatively
enthusi
method
bore
dud
##walk
forest
doom
edward
steals
cutting
covered
professor
continuity
africa
influence
category
ludic
scale
offensive
sitcom
excess
controvers
lawyer
unlikely
contemporary
texas
nation
pile
##raction
agre
makeup
viewed
handled
maintain
truck
harm
depicted
multiple
semi
nut
sout
beast
reject
##aken
##ighter
grab
unfortunate
laur
holding
shocked
gentle
russell
ba
##uther
height
health
prime
yell
##telling
believed
subpl
politics
adventures
##anagh
fix
jay
lau
movement
section
pregn
##osexual
warn
presents
provided
deaths
roman
irish
promising
weekend
qualities
sisters
atrocious
jam
##arian
polic
angles
touches
closer
designed
australian
liners
source
columbo
structure
kath
mock
##mother
##imate
outrage
spy
guil
guest
painting
reput
ruin
landsc
forgettable
cartoons
claims
idiot
loyal
caine
##ada
##cher
##oooo
exagger
plans
faced
preach
warri
supernatural
addict
surprises
provo
colon
speaks
previously
degree
ded
jaw
ken
lem
ske
##cent
##och
##rell
inj
##etime
enemy
serves
appl
bitter
invent
accents
glob
paint
treasure
focused
urban
roger
propaganda
kore
lon
ped
bros
chose
whoever
##abe
emma
related
mainstream
princess
pacino
weeks
eld
hip
table
##atically
charl
teens
contact
ideal
deadly
suffer
suffers
dogs
latest
##oppy
granted
veteran
cooper
gand
pier
##ket
butt
atl
alice
experiences
benef
mistakes
execution
dollars
accidentally
wilson
invisible
emphas
dent
mgm
wing
##uel
##bed
notch
crude
##ivan
realizes
flight
hoff
##apping
grave
colors
##heart
twisted
sympathy
unconvin
aliens
uninteresting
bush
dust
nude
sink
##iat
##ndam
##chy
friday
wear
spr
particip
##athan
security
accomp
commit
combined
prostit
guilty
coun
dub
jail
dece
carol
aftern
matrix
corpor
universe
convince
sensitive
struggling
dozen
accompan
hong
torn
##pre
whe
feed
blah
diss
poign
gritty
transform
appreciated
mirac
cabin
gain
lugos
##reg
##ching
unbe
contest
committed
driver
walked
technically
recognize
frightening
##ausible
lugosi
aka
##wy
##oting
##ali
donald
schem
magical
changing
sarah
widow
department
##enced
ree
shark
overwhel
directly
friendly
explains
superf
confront
darkness
##ennis
metal
franch
occasional
faithful
network
sullivan
hoffman
cul
wick
##cl
thumb
theory
abuse
neck
offered
performed
kinds
courage
featured
anger
demons
femin
variety
narration
suspenseful
massive
legendary
surface
experienced
vietnam
reputation
aunt
bbc
rings
##acc
storm
##alling
meat
lear
crying
contract
johnson
passing
figures
nazi
sunday
subtitles
bourne
gather
lol
mst
push
##don
##itious
everywhere
##umbling
titanic
concent
hugh
sorts
rule
statement
required
lonely
stolen
rachel
sen
sag
tong
##zel
##ares
ing
china
dean
spite
bett
cring
##formed
strict
border
position
hammer
journal
mirror
scares
remotely
melodrama
conversation
california
nostal
jungle
hired
##nn
##cr
##uced
toy
##aling
beck
##lying
placed
seek
spends
downright
trapped
susan
irre
curt
freeman
surviv
philip
julia
mexico
hipp
pul
rick
tax
toler
stom
notorious
effectively
worthwhile
favorites
captiv
listening
figured
encou
bothered
lifetime
abandoned
blockbuster
afternoon
cy
cous
cock
goth
lisa
pig
##ship
##lim
##yle
##kins
##bing
branagh
sple
happiness
evol
jobs
imagery
tales
admitted
cultural
unconvincing
boot
foster
rush
##mond
libr
alas
alright
cheese
consum
format
angle
lights
jeal
tremend
breatht
mexican
elizabeth
ara
dude
ned
##ida
worry
teeth
blown
maria
buying
rights
mature
larry
paying
pulls
burns
upset
divor
wreck
60s
cust
cel
rang
##atives
##ari
scenario
address
amazed
delivery
rolling
reveals
starred
productions
ze
##dies
##reh
stays
tear
views
artists
grey
stayed
focuses
1950
thankfully
pupp
status
significant
eve
wand
##stone
##oln
##iger
##tended
##aughters
indie
studios
examples
demand
honor
device
campy
complicated
ghosts
praise
ludicrous
math
reb
##amor
##outs
intens
grues
india
heavily
ignor
sidney
necessarily
reminisc
rank
tree
outf
spring
indul
hardy
inspect
murderer
cannib
profound
fourth
##belief
sleeping
desperately
understood
ain
bol
si
##nox
##ato
##ani
##ety
lift
facial
guar
beloved
obnox
term
warner
midnight
closing
integr
destroyed
initially
summary
fabulous
slapstick
pregnant
stomach
obnoxious
fed
gall
linc
tag
braz
deeper
argu
peck
blat
##reek
decades
install
distinct
magaz
renting
ignore
stereotypical
racist
inhab
bang
dennis
gab
lust
##tes
##bit
shape
league
craw
helping
corner
anticip
metaph
answers
gruesome
lincoln
bul
##enge
doc
arms
disbelief
grin
underground
sounded
calling
critical
musicals
1980
settings
drinking
task
description
learning
reminiscent
daughters
##gia
##mate
plant
greater
warned
minded
amazingly
julie
condition
sandler
criminals
regarding
mildly
princip
quirky
splend
bac
dal
gle
hind
sides
wave
reed
web
storytelling
throwing
screening
halfway
titles
##gging
claire
leslie
turkey
funnier
autom
extraordinary
nom
pian
vivid
##oor
##burn
##rend
shell
gro
stylish
depiction
swed
advant
michelle
severe
repet
prepared
ell
fel
via
##ffe
isol
##ales
##ader
comical
arn
preview
##atherine
misf
originality
extent
deliber
sophistic
choices
jessica
dump
lane
mouse
thunder
clock
disag
miscast
access
cole
headed
raised
touched
##ission
strip
massac
rogers
brooks
vacation
vincent
bollywood
##ston
seag
sevent
chilling
timing
##plays
incor
basis
elev
spoken
picks
burt
miller
stunt
homosexual
purely
dollar
smooth
graphics
inspiration
cus
gad
lazy
mol
pool
vent
##hh
##icial
notable
exh
charge
noble
overact
join
hole
subsequ
handle
coinc
concert
2000
novels
steps
introduction
essential
stanley
weapon
weapons
carpent
breathtaking
tab
vast
voy
##cra
##eral
##oration
reward
##adays
cha
cher
##umph
blair
throws
everyday
maker
serve
nowadays
##beat
##ibilities
strangely
properly
succeeds
locked
crafted
bart
fay
py
pad
##kh
##ona
alb
alter
weight
wears
unh
##udes
caring
cheer
tracy
adding
portra
laura
psychiat
ratings
causes
reference
determined
provoking
doo
wolf
##mates
##ila
fac
workers
##ifies
triumph
lesser
fallen
assign
2006
noneth
1970
atmospher
daily
carrying
challenge
hence
pound
ral
##gress
##race
nel
outd
##oyd
spook
adop
usa
##plic
slaughter
resist
relax
sinister
raise
sleazy
busy
amongst
westerns
jumps
jewish
risk
established
##iveness
kurt
southern
##wyck
nonetheless
cave
fo
fid
iv
##sky
##ught
##anity
stell
pros
diam
shower
spiel
carries
carried
##tending
confusion
attempting
retarded
##ception
manager
obser
cases
embarrassed
holmes
escapes
bettie
hi
hob
nine
tempt
##ca
##ration
##pire
##enom
unins
clips
showc
##ishes
enjoying
needless
ironic
madness
broke
sentimental
obsession
arrives
replaced
interpretation
navy
inspector
gut
upper
##hay
exists
enh
intentions
seeking
thro
conspir
angels
successfully
2001
construct
existent
stanwyck
balance
oliv
goofy
mansion
screenwriter
brazil
carpenter
uninsp
ira
jake
suther
##fia
##ils
##ouses
unre
legs
letter
coh
absor
possess
topic
lucy
laid
infam
illustr
oddly
presentation
attacked
mentally
horrific
catholic
##semble
marvelous
sutherland
fisher
mall
##orig
##lection
##ilton
dear
disgu
comedian
subm
phenom
conscious
burst
neighb
brando
fulf
fortunately
mst3
24
hick
wanna
##rist
##gas
thief
bew
stiff
alle
croc
served
decl
instinct
stupidity
stops
patient
attacks
convict
dawn
immense
ashamed
interviews
bridge
neighborhood
intensity
ralph
penn
##order
andre
attend
albe
blank
dise
traum
farm
thrilling
personalities
spiritual
packed
wwii
matthau
frequently
tongue
albeit
bust
gill
rum
##aves
##rence
##ule
##ito
proof
dod
finan
phill
parall
geor
flawed
1950s
dinner
suspects
baker
elder
poignant
seagal
spielberg
bald
cob
dere
hills
nol
oz
ric
##face
##isand
isra
##ieu
sham
##actic
##geon
dign
cance
bette
betray
rochester
horrend
stranger
inco
elvir
mindless
opened
drives
riding
innov
expressions
struggles
terrifying
internet
widmark
az
ecc
etern
hors
kud
las
##mal
beating
pride
plastic
##ago
overcome
greatly
dislike
elvis
announ
styl
refuses
credibility
occup
wishes
burton
##ification
err
adapted
revolves
innocence
arrog
aston
imaginative
minimal
cynical
franchise
advantage
israel
boll
fbi
tense
tune
wra
##iques
##fall
##asant
italy
##icing
forbid
##ament
choos
trite
lessons
sket
redempt
credible
streisand
medical
racism
dubbing
thousands
garden
wealthy
controversial
dentist
nelson
diamond
elvira
daw
fiance
jac
mes
tall
##drop
##inal
##eds
rend
dol
caric
happily
trial
sinc
bugs
helen
##ello
##appy
perfection
wilder
puzz
equal
##blance
krist
crisis
wheel
barr
nur
##iments
alike
##ela
##elve
prevent
carter
##entionally
corp
raj
countries
conclud
##ologist
guessing
thrillers
physically
broadcast
hundreds
andrews
reunion
unforget
derek
hud
##rie
render
wasting
cham
depe
manh
nose
##aker
poke
flav
chew
enjoyment
craz
shorts
technique
suffered
##shi
sexuality
##ophob
griff
gripping
disappear
chaplin
performers
sincere
eager
sings
sons
tied
yu
shy
shines
comfort
ensemble
firm
##forms
##berl
whereas
parent
glimp
ourselves
dancer
satan
britain
millions
hunting
##attan
connected
separate
uncomfortable
gadget
mst3k
glimpse
bot
boun
viv
##pet
thick
pray
compr
enorm
mechan
poet
##assion
unfold
eleg
iran
irony
exceptional
##airs
transfer
##iffer
flynn
profession
hyster
holiday
assistant
adequ
karloff
wicked
arnold
atmospheric
infamous
cup
cube
hes
##ties
##alia
wash
exer
##istent
knife
carn
gras
elabor
scripts
parad
glory
homeless
winter
curse
weakness
oscars
meaningful
fatal
official
searching
oblig
cousin
aired
bach
cos
lur
lying
pg
inher
##rian
plague
unpr
mupp
flu
##quis
resort
empath
basket
letting
cameos
patri
protagonists
scratch
savage
battles
unbear
oil
wiz
zone
toile
chasing
frag
activ
quote
entry
hamlet
troubled
suggests
idiotic
folk
fortune
split
stretch
massacre
portrait
horses
pam
##vably
item
stumb
noted
##aki
tender
lovable
guilt
trav
phant
consists
explicit
develops
hoped
jerk
accepted
burning
colorful
hiding
stealing
thousand
thirty
specific
splendid
unforgettable
dare
guts
pir
tam
chases
##uman
spots
saves
attraction
territ
worlds
basement
annoyed
larger
roberts
ultra
ambig
lucas
inexplic
redemption
300
ack
catherine
pap
wann
##nic
##ora
##opath
##apes
cheek
factory
glover
superher
boom
dialogs
restaur
corn
walken
shoots
destruction
repeat
dorothy
belongs
atlant
curtis
dur
econ
eerie
hanks
ramp
wake
##tt
##core
##rum
##oz
##jud
##pass
##ata
todd
infect
bride
##cho
##idents
chic
scoo
trade
##aky
backdrop
##ocr
margar
appearing
dramas
eleph
denzel
encoun
boredom
cusack
hudson
1st
99
gim
jen
kap
kane
##ye
thread
bears
stall
##ads
neil
shep
perpet
incons
pointed
confess
##ggie
closely
2005
##etta
expensive
franco
scientists
newsp
concerns
competent
rhy
kirk
library
##craft
econom
encounters
bin
nail
pse
sque
vig
##enstein
ish
sends
goal
spread
crimes
awe
eva
lloyd
##ointed
elsewhere
luci
huh
controll
launch
solve
appearances
checking
virus
complaint
stunts
loser
afford
achieved
segments
canada
hooked
eastwood
endearing
custom
cannibal
disagree
pseud
mam
pi
rushed
ripped
##kick
toss
##any
shaw
alf
drown
##ographic
dragged
swing
rocks
secretary
jeremy
essence
fashioned
bobby
charisma
tribute
citizen
incoherent
fitting
hitting
jet
lan
##reen
brill
##overy
reyn
abrupt
maid
maniac
noise
tea
gray
muslim
##ifying
believing
godfather
dealt
photographer
sentiment
striking
salv
tricks
birthday
ingred
45
heston
kub
marsh
ritter
tang
##ni
##esis
inse
stoo
##chant
fears
##isha
resour
triv
##gger
videos
attempted
countless
techniques
poster
reactions
briefly
leonard
thumbs
gothic
magazine
phenomen
scooby
covers
hust
ker
mun
pond
sally
##nan
##arm
inacc
##alo
##entric
heat
##ira
outl
##istically
mann
clint
clown
spa
bug
sexually
cox
giall
hearts
motor
1990
strikes
inspiring
iii
unintentionally
charismatic
horrendous
ax
bare
bible
eg
ic
kaz
mile
sov
tons
##oub
tool
##lear
plat
spike
poison
carrey
grows
carefully
eyed
importance
forgive
grandmother
limit
hype
smoking
surrounding
surrounded
admittedly
##rehens
00
21
kh
kitch
pover
vin
##iable
##iently
##rob
##gate
##asingly
stood
chances
##uristic
comics
upd
arc
fired
##ishment
spending
string
editor
monkey
engine
detract
relevant
stronger
homage
walls
##coming
##uclear
kicks
medium
##worth
revelation
kubrick
poverty
cens
ego
ian
kat
lit
lily
vicious
##aid
##ype
rex
stated
webs
conven
unim
meg
imit
killings
attached
enters
childish
glor
useless
easier
duke
1970s
judg
strike
requires
labor
represents
astaire
miike
alcohol
executive
aks
gift
mars
rome
um
##gun
##ds
##hoe
##isation
tooth
exch
abys
mafia
##usions
orch
union
root
performing
suburb
borrow
conserv
nights
bold
messages
selfish
2002
occurs
projects
university
cardboard
vulner
increasingly
associated
dropped
inevitable
korean
exercise
toilet
falk
han
hire
josh
lap
mate
tad
voc
##kind
##onse
sopr
##ume
##ibl
creation
drags
assault
typically
politic
silence
mistaken
acceptable
luckily
bleak
identify
torment
replace
jesse
##iosity
bakshi
resolution
sophisticated
dawson
reynolds
bay
ginger
hank
nuclear
##cut
##len
stir
stead
shining
selling
butch
twin
worker
gotta
handful
explod
advance
yester
davies
thrills
spirited
1980s
mcg
ambitious
depression
temper
investigation
splatter
matthew
outrageous
strictly
brilliance
35
hollow
##tw
##iors
##nes
##cil
##orem
##ingu
select
allowing
timeless
afterwards
beings
slim
struck
evident
termin
marc
reluct
persona
instantly
##entioned
worthless
breasts
joey
estate
convol
cruise
continued
insulting
digital
venge
kidnapped
shirt
fifteen
overlooked
jamie
brosnan
disease
bone
kay
pushed
sg
size
tail
##iere
##hold
##xon
##erning
##orthy
ingen
##oven
unple
fever
quar
prejud
partly
##ifting
insist
artific
creators
norman
pleased
distant
sidekick
importantly
bullet
competition
##works
sacrifice
assassin
presumably
superficial
tremendous
kudos
margaret
inaccur
akshay
apr
cia
gil
od
rig
wack
##now
##ller
##anny
beer
rein
##ower
shah
##urai
abc
##agin
##mann
blob
aforem
precise
realise
appr
appalling
farce
wondered
glorious
menacing
talked
uniform
buried
returning
##shine
boxing
flawless
superbly
raped
arrested
lifesty
temple
threatening
drunken
individuals
australia
incompet
photographed
exaggerated
conspiracy
eccentric
corpse
aforementioned
cag
jun
rive
##iation
##iders
doors
dire
##eryl
##orted
##igan
guide
slick
##aze
wonders
coach
corb
drivel
admire
listed
samurai
narrator
jumping
regardless
##world
highlights
frustrated
ticket
liberal
mitchell
gandhi
jealous
repetitive
nurse
pink
##mons
##icop
##ado
shout
##cend
##ummer
characterization
horrors
stress
empire
trap
helicop
craig
generous
curiosity
planning
pleasantly
beaten
bullets
rapid
bucks
electric
achievement
accomplished
miserably
piano
spooky
throat
cagney
nod
oce
##of
##uing
##oric
##icient
chain
notes
##ola
conqu
clues
perry
wells
precious
poll
accused
craven
drac
cameron
spoiled
picking
marks
##unky
goldberg
attracted
alexander
argument
ironically
consequences
francisco
laurel
uninspired
territory
unpleasant
dict
fx
foul
hmm
kin
##rich
##othing
staff
anal
##keys
wend
unm
##inder
watches
muse
blows
prev
offs
resur
emily
turner
indians
##awa
shortly
morality
modesty
duck
opposed
20th
slightest
##pses
response
logical
souls
revealing
hatred
melodramatic
gradu
motivation
ellen
psychiatrist
manhattan
superhero
gw
ire
mast
##rain
##rate
##rics
shoes
suits
saf
cared
directorial
compassion
titled
lacked
duo
documentaries
pulling
subplot
pulp
captivating
installment
felix
subsequent
kitchen
convoluted
dracula
ape
dum
ought
tie
tiger
##lan
##hand
##isions
##lle
rever
anch
##oops
scot
##ortion
pear
peak
horrid
psychotic
futuristic
ignored
candid
intrigued
remaining
aimed
unwatch
waters
conceived
overdone
warrior
forbidden
wannabe
fist
gyp
holly
##fun
##lk
##bal
##inn
##atisf
##owed
seed
chill
notably
worried
##aude
##agan
##quel
instit
scripted
reasonably
fancy
failing
satir
2004
bene
paulie
verhoe
scientific
smoke
repeatedly
tunes
obscure
elderly
restaurant
gimm
verhoeven
fog
gif
nas
pushing
##tv
##ucing
##pin
whale
supre
##estic
outcome
timothy
spider
crook
pretend
musc
marl
relent
##ashes
acclaim
explore
glenn
misses
providing
reduced
distance
combat
juliet
undoub
draws
idiots
panic
loosely
discussion
gradually
symbolism
exhib
dignity
griffith
hysterical
elaborate
giallo
soviet
cig
cried
dave
ta
##aurs
##rd
reh
reel
reli
sept
##unning
##inda
intent
function
##anski
slave
sloppy
stiller
screams
settle
warren
march
phr
reasonable
annie
morris
romero
darker
walker
2003
returned
exposed
sticks
sunshine
juven
shadows
carrie
bathroom
translation
kenneth
sneak
gimmick
dish
jazz
lamp
##gent
##bird
##entine
chor
chest
areas
##istan
imper
blake
##weight
holy
param
absence
danes
dancers
imagined
discovery
heroic
purple
contrary
rocket
wallace
observ
uneven
1930s
unbelievably
karen
rambo
berg
tortured
arrive
defend
commercials
hypn
altman
birds
divorce
unbearable
yesterday
astr
woo
##aled
stole
movements
exter
extended
##udge
crush
twelve
donna
prec
differences
eyre
concerning
##onym
infer
merit
improved
require
reached
mildred
royal
synops
choreography
##breaking
landscape
astonishing
ireland
bite
dah
daring
fart
nause
nerv
punk
rud
roth
rabb
##iar
##ees
##ji
bron
anx
conve
anyways
overrated
blast
displays
awa
confir
styles
collabor
snake
tommy
swear
illeg
secrets
builds
existed
winds
burned
drawing
affected
nazis
occurred
fulci
involvement
inhabit
kapoor
newspaper
##rehensible
dill
greek
hers
wis
##ilted
##urance
##rial
##olves
blunt
genres
apes
apolog
##atingly
terry
enterpr
audio
demands
popc
devast
delicious
antics
hamilton
contained
beatty
##opping
machines
unsett
sales
blend
recognized
ranks
currently
argue
resembles
population
nicholson
global
##ffee
adequate
undoubted
50s
dy
fing
pant
ts
tame
vall
##iy
##sp
##jo
threw
##erved
##asion
chains
##rah
neo
enchant
##igo
##ogether
adoles
enjoys
trio
harder
insert
steam
##isms
unfair
sadness
sadistic
centered
ridiculously
lawrence
cats
meaningless
bedroom
receive
sarc
investigate
optim
altogether
explosion
dutch
proceedings
ruthless
dynamic
journalist
encoura
swedish
seventies
innovative
pokemon
pseudo
website
popcorn
fighter
gor
nort
rage
rif
thugs
brady
beats
befriend
staged
##idy
suited
aging
flop
generic
humili
misunder
composed
robots
dramat
cameras
madonna
suspicious
palt
closet
respond
intrigue
exploit
voight
fonda
dinosaurs
##original
crocod
atlantis
synopsis
2nd
ease
kum
nem
nun
rural
##just
##edict
##itudes
brun
brains
##icity
stard
##ulf
##ulate
comfortable
neur
clothing
grain
##ionship
newcom
coast
dialogues
engaged
##lands
barg
transport
devoted
2007
alexand
defeat
escaped
cellul
conversations
mountains
prostitute
mesmer
orchest
juvenile
ec
ew
houses
ross
sme
vib
wag
##end
##ean
##zilla
##llie
whoop
shine
lips
exotic
orders
amuse
##place
sail
aggress
offering
warming
edie
kidding
coherent
coffee
imperson
versus
buddies
excru
murderous
antw
cinematographer
staying
laws
nearby
odds
latin
1930
conventional
immig
neglect
label
explosions
philosophy
cuba
lemmon
overwhelming
cringe
acknow
excruci
banned
hul
hbo
##nel
##bie
toys
inapp
abilities
##olph
##ptic
blowing
cary
fluff
removed
191
recover
producing
instant
liking
possessed
oppress
groups
marty
errors
damage
detailed
homer
palma
disturbed
nightmares
implausible
unintentional
kennedy
mickey
mummy
yellow
deliberately
celluloid
cunning
dating
tires
##gir
##va
##hem
##´s
##inent
##itar
##abh
leo
clo
##iously
spare
##cia
adul
interrupt
relies
careers
possibility
harvey
masters
solo
airpl
illog
subjects
1996
survival
causing
daddy
tracks
officers
explaining
persu
jeffrey
influenced
resemblance
vulgar
distracting
florida
metaphor
olivier
ingredients
unwatchable
undoubtedly
90s
finger
hug
jar
lun
nap
pars
pays
pale
##uable
##erk
##ications
retain
ath
##umsy
lean
##aux
goodness
clumsy
##ayson
blues
disj
funeral
awake
recon
keen
highest
classes
explored
glamor
polanski
skull
passes
props
garner
politically
##ettes
focusing
signs
catches
furthermore
cryst
satisfied
succeeded
primary
hideous
brooklyn
duty
colonel
scheme
wizard
bump
hog
kol
wives
##lag
##hill
stack
stabb
##emark
maggie
outer
enem
measure
arist
pegg
flies
##ipes
##ocative
decisions
##xture
secondly
models
winters
smaller
godzilla
repuls
trees
spirits
sentence
1999
1960
mysteries
remarkably
travels
affection
linda
arab
chaos
financial
ocean
aug
egg
gest
hates
len
rook
##ecess
##cingly
##iner
##atures
##isons
brav
rebel
rebell
ster
forty
notion
mail
clay
amy
endings
flir
characteristic
esp
thoughtful
chronic
unfolds
portion
##ologue
fantas
streep
predecess
devoid
destiny
surviving
companion
fundam
communist
desperation
recorded
berlin
primarily
frustration
consistently
stinker
lyrics
choreograph
yawn
offended
doomed
blatant
grinch
principal
lifestyle
beneath
enterprise
disjointed
3rd
bent
easter
egy
elli
sore
##crow
##ros
##gers
##atoes
##ovich
##etically
alert
diane
##umble
##obi
impe
user
disli
directs
performer
cheating
senseless
dances
curs
##enna
motives
garbo
countryside
grandfather
hyper
julian
trademark
immort
terrorist
mixture
celebrity
montage
circle
horrifying
dozens
revolutionary
hints
shirley
fetched
shelf
wrestling
enormous
artificial
cigar
inferior
nervous
enemies
egypt
dys
jol
uwe
wet
##lers
##hr
##ko
topless
##ulated
socc
depend
macy
orph
drops
mayor
apoc
##acies
sett
obtain
hardcore
acid
housew
lund
wax
hopeless
painted
developing
melting
##heim
avoided
judging
calm
trailers
urge
subtlety
reaches
traveling
surfing
eighties
describes
domino
gigg
dismiss
benefit
stellar
immensely
unsettling
cure
eri
gib
jed
khan
niro
pic
ties
wig
##yon
##ded
##oned
whim
##utter
##adine
##cha
##idal
##ami
##ularly
planned
##arts
diana
timon
amanda
adorable
##izable
recru
edit
wont
contrad
repub
technic
##issa
gerard
##etti
matches
troubles
backgrounds
blew
angeles
satisfact
practice
authority
scroo
simplistic
hartley
specifically
miserable
emphasis
saga
survivors
outfit
iraq
april
illogical
soccer
cd
dazz
faster
ling
ny
##yll
##uity
##ctions
##ieces
##adle
assem
analy
chess
lip
##esth
##pel
##abel
neph
##ounding
amit
##agues
peoples
awak
simil
mario
steel
menace
forms
breed
useful
transition
towns
##arthur
prompt
commented
babe
illness
util
judy
claimed
1940
dickens
jewel
loads
earned
corruption
lumet
dinosaur
transformation
##donald
resurrect
cards
ears
lena
rene
wt
##lam
##gren
##inity
brig
##otte
enlight
##atched
##igner
endure
serge
lasted
parano
##aneously
racial
guessed
psychopath
##enger
rooms
weakest
honesty
introduces
limits
hurts
trashy
depressed
sellers
passionate
jonathan
disappeared
displayed
interaction
philosophical
dedicated
arrogant
##ophobic
elephant
riveting
chorus
bergman
choreographed
republic
nephew
22
cake
eli
icon
rag
tank
wore
##mi
##orc
whis
repress
sho
shap
shake
chased
liz
prize
wendy
justify
overt
quotes
adams
realizing
compens
monkeys
pacif
possibilities
##ysis
hopper
similarities
unsatisf
macarthur
kicked
stereotype
sandra
moody
porno
represented
voiced
miy
##aaaa
buffs
scarecrow
formulaic
ethnic
charlotte
nomination
isolated
abysmal
safety
pearl
similarly
cu
gym
ka
rit
##fight
##ele
##bly
##bod
##orney
inane
button
chave
sung
scope
unse
trained
myr
myers
thru
##pled
##assy
##peror
recyc
newly
emperor
misle
tribe
sounding
defense
christy
understandable
considerable
snl
pattern
promised
kingdom
campbell
treats
1972
improve
casual
dimension
bonus
faults
stinks
education
rotten
solely
swimming
inventive
nostalgic
puppet
dalton
dolph
grasp
conservative
helicopter
amitabh
chavez
eug
kent
kyle
lately
mish
ot
pour
##oir
##vest
##dow
##wright
##book
##oma
stilted
asp
##verted
deaf
##antee
orson
mund
blur
facing
poetic
##ivals
species
##acle
downhill
comparing
elimin
##onscious
simpson
##annon
gender
peters
patric
airport
photos
mistress
claus
##ivalent
hyde
dais
bleed
dolls
embarrassment
fooled
foolish
legal
coward
consistent
contempl
fleet
tonight
aids
##uddled
purchase
agrees
corporate
ignorant
unhappy
parallel
##quisite
museum
bark
ollie
ps
pants
sits
taught
##tte
##town
##iant
##rina
##riel
##uge
##era
shan
##cks
##astically
unrel
armed
blade
pretending
vegas
attorney
edgar
letters
monot
gloss
confidence
sadd
waited
lackl
namely
despair
wished
1983
halluc
reaching
dirt
##ropriately
montana
stevens
motivations
ruby
rubber
loren
applaud
shelley
constructed
fulfill
unpredict
stooges
##function
tiresome
kl
oct
sill
tier
vice
##iably
##woman
##holic
##stin
##chi
##idently
plight
commend
##osis
divers
dixon
upl
poem
sappy
agents
partners
writes
gundam
flam
grotes
joh
horn
bela
incest
humble
relation
schlock
glim
staring
confident
confron
engage
christians
behave
irres
raising
greg
buildings
delivering
gangsters
combine
closest
ballet
cleverly
scarlet
destroying
suitable
raymond
carradine
connery
virginia
nicol
miracle
jenny
alfred
vengeance
paltrow
crocodile
aven
barn
coc
cav
jod
loos
rav
##ih
##rest
##vity
inject
reck
stark
prol
##raw
##antino
##ivable
flag
farrell
reads
blacks
couples
engross
synd
waves
swall
valuable
convincingly
secretly
climactic
bands
jumped
scottish
1968
arrived
square
industrial
conflicts
civilization
robinson
sirk
alcoholic
gentleman
guarantee
elegant
september
airplane
scrooge
paranoia
cyc
june
lav
molly
nar
pas
wret
wrap
yok
##tr
##eur
##low
##mp
shod
##ids
chop
hav
sue
plod
whats
closed
amid
willis
spock
yelling
grind
undert
resident
surpass
cheated
misery
marion
audition
leaders
exploration
##rett
lowest
creator
##annah
pops
frankenstein
richardson
exped
waitress
catching
balls
1960s
kicking
witches
understated
ethan
robbery
beliefs
austen
nicholas
wrapped
poetry
chicago
lundgren
lens
oth
##lines
##jay
##mel
##ancing
ingr
##icism
##ovsky
stale
##eta
fren
scores
abusive
unst
intric
firstly
grie
##eps
desired
##iped
traff
invasion
blackm
messed
richards
spoke
greedy
centers
##ushi
construction
potentially
photo
claustr
questionable
germans
survived
obsess
catchy
literature
designs
riot
remarks
walt
progresses
simplicity
advertising
nostalgia
taxi
bottle
vulnerable
junior
bargain
75
darr
hench
##oen
thorn
##anos
##omnia
##leans
bever
##stage
shed
##alled
soder
dee
mankind
cloud
guitar
joined
attitudes
apple
buzz
persons
helm
careful
absent
restored
experiments
copies
alongside
advise
advanced
demented
hello
##issance
louise
frankie
mclag
hunters
operation
condem
recognition
amounts
complexity
brutally
depicts
lengthy
unexpl
eaten
chapter
nerd
intentionally
vaguely
purchased
irrele
wandering
arguably
gabriel
bacall
showcase
rendition
phantom
stallone
illegal
inappropriate
dysfunction
ritual
grotesque
wretched
bast
naught
nuts
nathan
rave
rising
roof
uh
##yers
##iceless
##ala
##ilight
online
reid
reign
seld
habit
##ulation
degr
likewise
##aste
justin
unit
unle
troops
intimate
betty
quant
twilight
poe
grate
grayson
rooney
minus
relatives
edition
visible
visits
drake
distingu
bread
demonic
petty
patients
opinions
##hears
descent
##ucky
1973
protest
signed
matched
##opped
prisoner
prisoners
terrorists
floating
witnesses
ashley
chicks
domestic
incomprehensible
biko
cybor
neighbors
resources
wisdom
apt
cities
furn
vic
yard
##fire
##oh
##erate
##eson
##oms
##icia
##ersh
priceless
worn
org
##ousing
lect
carell
keith
attrib
viewings
##aware
helpless
classical
dreary
ridden
lively
capturing
tomatoes
solution
damon
earl
appreciation
losers
fascinated
squad
equip
witnessed
responsibility
substit
ensues
proceeds
manipulative
challenging
alternate
barrymore
agreed
jaws
accompanied
basketball
rhyth
incompetent
analysis
rabbit
antwone
orphan
technicol
3d
cri
lush
mud
os
rude
rats
wals
##lins
##lma
##ju
##atics
##edly
##lls
##otion
rew
butler
alison
scor
plausible
abra
map
trump
spaces
parties
wrench
grass
serving
##bergh
##ocol
belushi
smiling
indiffer
trace
mighty
tyr
defined
greed
snob
masterful
rocky
randy
unden
satisfy
arrival
compelled
property
disgrace
equivalent
widely
accomplish
frequent
owen
alternative
championship
excessive
subplots
incorpor
overacting
alleged
mundane
othello
holl
jord
mtv
nyc
sf
zize
##iour
##hin
thomp
##inations
whit
scand
doct
exquisite
orleans
fee
seeks
tends
pee
pock
##forward
##ansas
##azaki
##ashi
insomnia
##arring
consci
superst
graham
suspend
barrel
novak
psychic
duch
campa
hilariously
rukh
1984
historically
##strong
crucial
angela
channels
exceptionally
legit
dressing
warmth
ninja
dropping
enthusiasm
landscapes
rangers
wacky
wagner
walsh
zizek
bumbling
dj
dw
omen
pix
wang
wishing
##uction
##orth
##ioni
##aman
exorc
orange
meand
clip
perce
showdown
willie
spain
imitation
crown
prequel
carla
specially
simult
obst
##ubby
subl
leth
monk
polished
entr
creativity
distress
generated
##veloped
cannon
mentioning
sweat
ern
1933
masterpieces
recording
opportunities
randomly
13th
mentions
nonsens
loaded
pursuit
cassave
cassidy
watson
improvement
methods
heights
survivor
fido
chooses
mechanical
pamela
astron
soderbergh
irrelevant
abraham
thompson
30s
bs
cad
darn
eb
goo
meryl
oly
##po
therap
stab
dele
intim
##icking
quinn
awfully
##eping
drum
performs
reson
simmons
indic
phony
elm
##onson
household
morbid
brenda
behold
promises
duv
ruins
suffice
damme
palace
introduce
purposes
ramones
punishment
marketing
sabrina
kuros
caliber
minimum
obliv
wounded
feminist
hippie
album
empathy
travesty
borrowed
scotland
gifted
##onymous
whoopi
august
eastern
eugene
equipment
bos
dil
gate
gret
hans
honey
rail
soup
saint
ustin
##aving
##rows
##esc
##alie
stor
##cel
chand
##uries
sugar
unoriginal
unaware
##igm
clu
bloom
quit
##plo
##tends
##izations
##angle
inducing
coff
##xties
stargate
dana
moronic
dreck
definition
fuller
geek
fury
1987
respected
spacey
1997
roller
rolled
expressed
businessman
masses
popularity
conduct
##borough
receives
testament
biography
kissing
stretched
educational
sixties
crawford
assigned
phillip
comprom
activities
unimagin
crystal
miyazaki
unseen
darren
mclaglen
campaign
kurosawa
ustinov
bub
cec
ga
kra
marth
pump
tent
tact
##rad
##jack
##uated
##bury
##ester
tod
bend
##utions
##entin
##char
##ione
##amin
hears
soci
wholly
enl
unra
##itect
greatness
roots
underlying
interests
edgy
laughably
sched
cream
##erto
syl
retired
valid
2008
mete
milk
resulting
lands
furious
doubts
expand
1993
stunned
publish
deniro
tarantino
teaching
sunny
##enez
package
squir
depicting
assumed
##haust
architect
buffalo
correctly
sissy
bridget
nicole
antonioni
austin
inevitably
composer
distribution
exposure
warriors
pierce
deceased
guarante
integrity
shameless
valley
kolch
shangh
unpredictable
expedition
seldom
cripp
nonsensical
buster
baff
fought
rant
raz
rapt
sway
tin
vom
wire
woe
##ipe
##rams
##okes
##uf
##inel
##onne
##itled
stad
butter
fried
sust
congr
enfor
lex
perm
twins
prey
directions
##iley
##cca
joel
##acity
surg
murray
romp
experimental
excl
reflection
demean
supported
patience
##maid
landing
1971
1995
merits
suggested
sensational
tasteless
alec
brutality
accuracy
chicken
strangers
exposition
zeal
3000
marshall
censors
lampoon
uplifting
rhythm
shanghai
bam
bert
rita
wu
##can
##rin
##gie
##gra
##water
##atable
##oral
brash
##sty
shif
shaky
files
##uri
##essa
preston
##emic
##rier
exhaust
leather
upst
bless
grief
slice
##lik
invented
stuart
scriptwr
reader
grabs
brend
generations
amazon
passable
valentine
victory
pete
femme
antagon
checked
##brid
adaptations
companies
conditions
immediate
malone
legacy
resemble
fields
pressure
significance
robbins
glasses
bernard
##avery
loyalty
indulgent
baldwin
wilderness
exchange
kumar
technicolor
unravel
aesth
bost
cem
caps
dand
fon
hut
kil
kings
kansas
rack
rises
tube
vance
wy
##hile
##zzy
inability
##icable
##ilia
shred
ships
##tery
prose
alicia
##ooding
##eliness
##ption
clin
amused
recre
newman
decor
downey
bitch
##aneous
boyle
singers
examination
gregory
demise
tomor
husbands
ordered
cattle
straightforward
subjected
billed
respectively
palance
senses
logan
masks
raines
millionaire
russia
christianity
objective
frustrating
cracking
unexpectedly
fabric
tacky
hawke
confrontation
##burne
crazed
ambiguous
gwyn
rifle
disliked
lackluster
blackmail
olymp
23
bil
bunny
fishing
rates
wwe
wides
##fast
##creen
##zing
##bast
##erem
##enborough
##anch
##oves
##chen
##ayed
asyl
frost
weather
##osing
leap
flair
##ryn
desires
remained
19th
slut
shoulders
##acious
misgu
tripe
basinger
musicians
parade
##xton
provocative
assured
memor
refused
females
suspic
sentinel
##box
premiere
difficulties
1936
tastes
fascination
improb
sharon
foxx
deranged
frightened
behaviour
primitive
summar
##undant
mccoy
seduct
addicted
stumbled
infected
sopranos
chainsaw
fundamental
dysfunctional
simultaneously
kolchak
ak
bure
fade
gos
gersh
munch
sas
tan
wakes
zor
##fest
##felt
##iti
##itable
##itated
hep
heir
framed
abused
##anted
##odge
unlik
noises
overs
##ours
awhile
joins
backs
remakes
##neath
underneath
comedians
appropriately
musician
cope
coaster
##neyed
##tones
raises
agenda
filling
1988
1978
presenting
wildly
teachers
radical
##attered
option
interactions
earnest
fifty
complaints
challenged
hungry
springer
bacon
thunderbird
caricatures
paradise
items
precisely
phrase
paramount
fingers
amusement
aristocr
silliness
tomorrow
73
cere
caut
dang
jur
muddled
##fly
##gio
##pa
##atum
##leck
revers
rehears
##ghan
choppy
##ersed
sums
##abled
mand
leigh
charged
cancer
##agn
bla
posey
guer
flock
designer
##ensen
slip
smack
##life
owners
##ella
visiting
coup
fathers
releases
lux
##road
murdering
region
credited
curly
trend
roommate
babies
hopkins
##ipper
1989
premier
posters
narrow
esther
homes
literary
1939
teaches
discovering
##going
##oopers
servant
absurdity
prepare
celebration
www
quietly
knocked
hackneyed
linds
complaining
counterp
pitiful
citizens
clarke
policeman
loneliness
coincidence
sketch
chamberl
quarter
adolescent
fantasies
contradict
misleading
aspiring
tierney
beverly
conscience
duvall
clueless
asylum
unlikable
40s
bars
cod
cue
ein
gap
hk
rug
rational
##rome
##gling
##ois
##vol
##oria
##arse
rely
##eted
shared
heist
haired
pron
dose
active
abb
##gey
##osterous
moreover
click
##apable
quaid
dont
disci
realised
gris
##ipid
slack
shoulder
minister
attenborough
contempt
triple
invites
insipid
handling
schne
visited
heartfelt
mode
register
devices
proph
profanity
##ika
1986
1979
boxer
conviction
occasions
internal
biased
preposterous
penny
objects
dresses
freaks
enthr
imaginable
ratso
champion
laurence
encourage
automatically
adopted
nolan
inexplicably
vocal
odys
acclaimed
nemesis
shoddy
meteor
lindsay
28
bubb
dwar
mount
paz
riff
rena
sie
vader
wol
##fl
##ae
##roll
##oj
##mary
##kas
##encies
##anie
beg
stare
shin
filth
chills
##ulations
scoop
bye
meas
canyon
spont
disast
slam
underc
screens
setup
##lied
idol
youngest
kidman
monstr
yeti
tyler
secondary
skits
paxton
heartbreaking
hopelessly
counts
##otta
uncut
##onto
##iko
##ucker
##shell
accepts
beatles
##zzard
referred
tracking
positively
regarded
ladder
additional
substant
rosemary
chuckle
translated
##break
restrict
hughes
ignorance
outfits
muppet
controlled
judgment
naughty
bike
bachel
gere
gina
kline
kitty
lic
lass
pages
tip
##rog
bronson
stim
deer
##oodle
##ables
mah
preming
realm
##taine
##izz
##oca
##angel
underworld
margin
insurance
glowing
recommendation
corpses
christine
refuge
gear
trem
sleaze
suspension
##iker
respective
conventions
1969
historic
fitz
jews
deserted
flee
daniels
maxim
gambling
categ
tunnel
challenges
admirable
rejected
celest
severely
beware
gillian
betrayal
reluctant
patricia
martha
brendan
misguided
renaissance
preminger
ced
dimin
fift
lil
nit
sassy
wander
##mers
##pow
##ati
##eday
brat
##leton
whack
stern
anc
selection
sox
scors
alley
##opa
dilem
trains
guin
gram
rope
mayhem
evidently
viewpoint
startling
indication
invited
farmer
cinemas
artsy
paran
angst
psychology
sooner
filler
lois
hammy
sleepwalk
lester
sympathize
shares
gems
banal
circus
disappears
hyped
praised
offend
harmless
guests
##club
anticipation
incorrect
eternal
inconsistent
outlaw
prejudice
jordan
deleted
##ploitation
guaranteed
fontaine
hepburn
95
bully
dates
diet
mim
nails
pumb
taut
vain
zh
zoom
##sa
##set
##sons
##yard
##put
##orse
##rehe
stages
